{
  "version": "1.0",
  "truncation": null,
  "padding": null,
  "added_tokens": [
    {
      "id": 0,
      "content": "<pad>",
      "single_word": false,
      "lstrip": false,
      "rstrip": false,
      "normalized": false,
      "special": true
    },
    {
      "id": 1,
      "content": "<unk>",
      "single_word": false,
      "lstrip": false,
      "rstrip": false,
      "normalized": false,
      "special": true
    },
    {
      "id": 2,
      "content": "<s>",
      "single_word": false,
      "lstrip": false,
      "rstrip": false,
      "normalized": false,
      "special": true
    },
    {
      "id": 3,
      "content": "</s>",
      "single_word": false,
      "lstrip": false,
      "rstrip": false,
      "normalized": false,
      "special": true
    }
  ],
  "normalizer": null,
  "pre_tokenizer": {
    "type": "ByteLevel",
    "add_prefix_space": true,
    "trim_offsets": true,
    "use_regex": true
  },
  "post_processor": null,
  "decoder": null,
  "model": {
    "type": "BPE",
    "dropout": null,
    "unk_token": null,
    "continuing_subword_prefix": null,
    "end_of_word_suffix": null,
    "fuse_unk": false,
    "byte_fallback": false,
    "ignore_merges": false,
    "vocab": {
      "<pad>": 0,
      "<unk>": 1,
      "<s>": 2,
      "</s>": 3,
      ",": 4,
      ".": 5,
      "0": 6,
      "1": 7,
      "2": 8,
      "3": 9,
      "4": 10,
      "5": 11,
      "6": 12,
      "7": 13,
      "8": 14,
      "9": 15,
      "A": 16,
      "B": 17,
      "C": 18,
      "D": 19,
      "E": 20,
      "F": 21,
      "G": 22,
      "H": 23,
      "I": 24,
      "J": 25,
      "K": 26,
      "L": 27,
      "M": 28,
      "N": 29,
      "O": 30,
      "P": 31,
      "Q": 32,
      "R": 33,
      "S": 34,
      "T": 35,
      "U": 36,
      "V": 37,
      "W": 38,
      "X": 39,
      "Y": 40,
      "Z": 41,
      "a": 42,
      "b": 43,
      "c": 44,
      "d": 45,
      "e": 46,
      "f": 47,
      "g": 48,
      "h": 49,
      "i": 50,
      "j": 51,
      "k": 52,
      "l": 53,
      "m": 54,
      "n": 55,
      "o": 56,
      "p": 57,
      "q": 58,
      "r": 59,
      "s": 60,
      "t": 61,
      "u": 62,
      "v": 63,
      "w": 64,
      "x": 65,
      "y": 66,
      "z": 67,
      "Ġ": 68,
      "Ġt": 69,
      "he": 70,
      "Ġo": 71,
      "Ġa": 72,
      "Ġthe": 73,
      "on": 74,
      "Ġof": 75,
      "ti": 76,
      "in": 77,
      "er": 78,
      "en": 79,
      "re": 80,
      "Ġs": 81,
      "Ġb": 82,
      "nd": 83,
      "is": 84,
      "at": 85,
      "tion": 86,
      "al": 87,
      "or": 88,
      "es": 89,
      "Ġp": 90,
      "ed": 91,
      "ent": 92,
      "ĠS": 93,
      "ĠĠ": 94,
      "Ġin": 95,
      "Ġ1": 96,
      "Ġto": 97,
      "Ġc": 98,
      "ĠC": 99,
      "ĠA": 100,
      "Ġand": 101,
      "ar": 102,
      "it": 103,
      "Ġf": 104,
      "Ġm": 105,
      "Ġw": 106,
      "ct": 107,
      "ĠP": 108,
      "la": 109,
      "Ġor": 110,
      "Ġbe": 111,
      "ro": 112,
      "..": 113,
      "ment": 114,
      "Ġre": 115,
      "Ġ2": 116,
      "Ġby": 117,
      "ou": 118,
      "ic": 119,
      "an": 120,
      "ons": 121,
      "Ġd": 122,
      "Ġan": 123,
      "ing": 124,
      "le": 125,
      "se": 126,
      "ate": 127,
      "Ġsu": 128,
      "Ġth": 129,
      "Ġe": 130,
      "ĠT": 131,
      "ation": 132,
      "ch": 133,
      "Ġfor": 134,
      "all": 135,
      "Ġany": 136,
      "ĠSt": 137,
      "id": 138,
      "ĠĠĠĠ": 139,
      "Ġsh": 140,
      "Ġshall": 141,
      "Ġma": 142,
      "ĠI": 143,
      "Ġas": 144,
      "Ġ19": 145,
      "ce": 146,
      "ĠAct": 147,
      "Ġ3": 148,
      "om": 149,
      "tu": 150,
      "ĠState": 151,
      "ion": 152,
      "end": 153,
      "il": 154,
      "Ġn": 155,
      "ers": 156,
      "as": 157,
      "Ġpro": 158,
      "....": 159,
      "pe": 160,
      "titu": 161,
      "ra": 162,
      "ve": 163,
      "Ġh": 164,
      "Ġsuch": 165,
      "ri": 166,
      "th": 167,
      "onstitu": 168,
      "ĠL": 169,
      "res": 170,
      "Ġu": 171,
      "mend": 172,
      "ia": 173,
      "onstitution": 174,
      "ĠH": 175,
      "ĠConstitution": 176,
      "her": 177,
      "Ġla": 178,
      "ir": 179,
      "ĠCou": 180,
      "ith": 181,
      "ĠPar": 182,
      "ver": 183,
      "eg": 184,
      "Ġex": 185,
      "Ġmay": 186,
      "mendment": 187,
      "mb": 188,
      "if": 189,
      "ist": 190,
      "Ġthat": 191,
      "ly": 192,
      "ot": 193,
      "ol": 194,
      "ĠThe": 195,
      "ĠM": 196,
      "ĠG": 197,
      "ur": 198,
      "Ġon": 199,
      "du": 200,
      "Ġres": 201,
      "Ġwith": 202,
      "ther": 203,
      "Ġthis": 204,
      "ĠAmendment": 205,
      "Ġprov": 206,
      "Ġlaw": 207,
      "ng": 208,
      "TI": 209,
      "ĠĠĠĠĠĠĠĠ": 210,
      "ty": 211,
      "ĠF": 212,
      "ig": 213,
      "ec": 214,
      "ON": 215,
      "im": 216,
      "ter": 217,
      "st": 218,
      "Ġwh": 219,
      "ĠB": 220,
      "rt": 221,
      "pp": 222,
      "19": 223,
      "egis": 224,
      "ĠLegis": 225,
      "ĠGo": 226,
      "ĠO": 227,
      "ĠR": 228,
      "tic": 229,
      "omm": 230,
      "nder": 231,
      "Ġis": 232,
      "vern": 233,
      "Ġunder": 234,
      "ure": 235,
      "Ġ4": 236,
      "nc": 237,
      "ĠD": 238,
      "ud": 239,
      "ĠGovern": 240,
      "ow": 241,
      "ĠN": 242,
      "Ġme": 243,
      "........": 244,
      "ice": 245,
      "ted": 246,
      "ag": 247,
      "ting": 248,
      "ub": 249,
      "Ġ197": 250,
      "ĠU": 251,
      "Ġother": 252,
      "che": 253,
      "ident": 254,
      "tive": 255,
      "Ġar": 256,
      "and": 257,
      "Ġprovis": 258,
      "chedu": 259,
      "use": 260,
      "ĠSchedu": 261,
      "ĠInd": 262,
      "Ġcon": 263,
      "am": 264,
      "Ġsub": 265,
      "resident": 266,
      "Ġcla": 267,
      "ĠPro": 268,
      "qu": 269,
      "ions": 270,
      "lia": 271,
      "Ġ20": 272,
      "de": 273,
      "itor": 274,
      "Ġnot": 275,
      "pec": 276,
      "ĠUn": 277,
      "Ġapp": 278,
      "ncil": 279,
      "ĠHou": 280,
      "Ġwhic": 281,
      "ĠPresident": 282,
      "ay": 283,
      "ĠCourt": 284,
      "Ġartic": 285,
      "liament": 286,
      "ĠIndia": 287,
      "Ġ5": 288,
      "Ġde": 289,
      "Ġwhich": 290,
      "fer": 291,
      "ĠParliament": 292,
      "od": 293,
      "ll": 294,
      "ĠCouncil": 295,
      "ĠUnion": 296,
      "erv": 297,
      "ritor": 298,
      "erritor": 299,
      "HE": 300,
      "red": 301,
      "ect": 302,
      "ess": 303,
      "Ġpar": 304,
      "Ġg": 305,
      "Ġso": 306,
      "ates": 307,
      "Ġarticle": 308,
      "ĠE": 309,
      "ore": 310,
      "ul": 311,
      "tions": 312,
      "ĠPart": 313,
      "rom": 314,
      "Ġoff": 315,
      "ity": 316,
      "Ġmade": 317,
      "ĠTHE": 318,
      "Ġclause": 319,
      "Ġit": 320,
      "Ġfrom": 321,
      "ut": 322,
      "ND": 323,
      "lat": 324,
      "Ġv": 325,
      "ses": 326,
      "ence": 327,
      "iss": 328,
      "Ġmemb": 329,
      "ied": 330,
      "ies": 331,
      "ial": 332,
      "ĠLegislat": 333,
      "ak": 334,
      "Ġterritor": 335,
      "ĠCh": 336,
      "pect": 337,
      "po": 338,
      "ĠHouse": 339,
      "Ġrespect": 340,
      "Ġha": 341,
      "ĠOF": 342,
      "ĠAs": 343,
      "Ġprovisions": 344,
      "ĠJ": 345,
      "ill": 346,
      "ONS": 347,
      "ff": 348,
      "ta": 349,
      "igh": 350,
      "IA": 351,
      "ĠStates": 352,
      "Ġ11": 353,
      "Ġcomm": 354,
      "ts": 355,
      "Ġpers": 356,
      "ph": 357,
      "ĠLegislature": 358,
      "ĠSub": 359,
      "op": 360,
      "istri": 361,
      "ĠGovernor": 362,
      "ĠIND": 363,
      "TION": 364,
      "ĠINDIA": 365,
      "raph": 366,
      "un": 367,
      "TU": 368,
      "Ġhe": 369,
      "Ġall": 370,
      "Ġthere": 371,
      "ary": 372,
      "agraph": 373,
      "ĠCONS": 374,
      "TITU": 375,
      "ĠCONSTITU": 376,
      "ties": 377,
      "ĠSchedule": 378,
      "ĠCONSTITUTION": 379,
      "Ġspec": 380,
      "Ġcons": 381,
      "Ġare": 382,
      "Ġac": 383,
      "Ġca": 384,
      "ord": 385,
      "ĠProv": 386,
      "ge": 387,
      "ĠComm": 388,
      "ance": 389,
      "istrict": 390,
      "56": 391,
      "Ġad": 392,
      "ication": 393,
      "ĠĠĠĠĠĠĠĠĠĠĠĠĠĠĠĠ": 394,
      "oin": 395,
      "Ġ6": 396,
      "Ġinc": 397,
      "fore": 398,
      "Ġoffice": 399,
      "lative": 400,
      "Ġi": 401,
      "Ġexp": 402,
      "ified": 403,
      "ĠLegislative": 404,
      "ĠRe": 405,
      "Ġbefore": 406,
      "lation": 407,
      "led": 408,
      "ab": 409,
      "rib": 410,
      "ĠGovernment": 411,
      "und": 412,
      "ĠSubs": 413,
      "ided": 414,
      "Ġj": 415,
      "Ġhave": 416,
      "der": 417,
      "ition": 418,
      "Ġpur": 419,
      "ans": 420,
      "ated": 421,
      "Ġhis": 422,
      "ix": 423,
      "Ġl": 424,
      "Ġpow": 425,
      "anc": 426,
      "inist": 427,
      "Ġno": 428,
      "................": 429,
      "ission": 430,
      "Ġmak": 431,
      "Ġhas": 432,
      "med": 433,
      "Ġ196": 434,
      "iv": 435,
      "mit": 436,
      "Ġmat": 437,
      "Ġdis": 438,
      "197": 439,
      "tain": 440,
      "Ġperson": 441,
      "us": 442,
      "ĠIn": 443,
      "Ġreg": 444,
      "Ġ7": 445,
      "semb": 446,
      "ip": 447,
      "Ġrefer": 448,
      "Ġim": 449,
      "Ġper": 450,
      "ond": 451,
      "mitted": 452,
      "Ġif": 453,
      "ĠAssemb": 454,
      "ction": 455,
      "ĠV": 456,
      "Ġmembers": 457,
      "ĠCommission": 458,
      "Ġat": 459,
      "Ġcase": 460,
      "lud": 461,
      "Ġele": 462,
      "air": 463,
      "up": 464,
      "Ġserv": 465,
      "ject": 466,
      "cla": 467,
      "Ġspecified": 468,
      "Ġpurpo": 469,
      "ĠAssembly": 470,
      "Ġse": 471,
      "our": 472,
      "vent": 473,
      "Ġr": 474,
      "ĠLand": 475,
      "20": 476,
      "ear": 477,
      "ubl": 478,
      "des": 479,
      "te": 480,
      "Ġbeen": 481,
      "ĠScheduled": 482,
      "me": 483,
      "Ġun": 484,
      "ous": 485,
      "ie": 486,
      "II": 487,
      "uth": 488,
      "Ġ24": 489,
      "thing": 490,
      "desh": 491,
      "enc": 492,
      "ĠSe": 493,
      "uthor": 494,
      "Ġle": 495,
      "ise": 496,
      "Ġauthor": 497,
      "Ġterritory": 498,
      "Ġappoin": 499,
      "Ġinclud": 500,
      "aid": 501,
      "Ġorder": 502,
      "ĠHigh": 503,
      "ĠFor": 504,
      "Ġwhe": 505,
      "for": 506,
      "Ġ198": 507,
      "ard": 508,
      "ĠSup": 509,
      "har": 510,
      "ĠDe": 511,
      "reme": 512,
      "Ġ8": 513,
      "ĠSupreme": 514,
      "ad": 515,
      "Ġaf": 516,
      "Ġ13": 517,
      "ĠNo": 518,
      "per": 519,
      "ax": 520,
      "Ġy": 521,
      "Ġtim": 522,
      "ire": 523,
      "ĠX": 524,
      "irst": 525,
      "ĠChair": 526,
      "ĠIns": 527,
      "Ġrec": 528,
      "Ġmake": 529,
      "Ġtime": 530,
      "ats": 531,
      "encement": 532,
      "ffect": 533,
      "ters": 534,
      "Ġ12": 535,
      "ublic": 536,
      "por": 537,
      "ens": 538,
      "Ġcommencement": 539,
      "Ġyear": 540,
      "eral": 541,
      "mation": 542,
      "pt": 543,
      "Ġcou": 544,
      "ach": 545,
      "sed": 546,
      "ĠPra": 547,
      "ĠJud": 548,
      "Ġacc": 549,
      "Ġparagraph": 550,
      "ĠPradesh": 551,
      "The": 552,
      "Ġdistrict": 553,
      "oc": 554,
      "ced": 555,
      "man": 556,
      "par": 557,
      "ĠProvided": 558,
      "gan": 559,
      "ities": 560,
      "pu": 561,
      "Ġag": 562,
      "Ġsec": 563,
      "Ġits": 564,
      "iod": 565,
      "Ġperiod": 566,
      "Ġ111": 567,
      "ĠBill": 568,
      "Ġafter": 569,
      "Ġ16": 570,
      "Ġcom": 571,
      "ac": 572,
      "ĠK": 573,
      "Ġthan": 574,
      "peak": 575,
      "venth": 576,
      "isation": 577,
      "Ġ29": 578,
      "ame": 579,
      "Ġeffect": 580,
      "Ġmatters": 581,
      "gh": 582,
      "olu": 583,
      "Ġprovision": 584,
      "Ġpre": 585,
      "Ġdu": 586,
      "Ġdec": 587,
      "mber": 588,
      "ĠChairman": 589,
      "ru": 590,
      "onom": 591,
      "Ġsubject": 592,
      "ib": 593,
      "with": 594,
      "Ġ9": 595,
      "ari": 596,
      "old": 597,
      "able": 598,
      "Ġ31": 599,
      "est": 600,
      "ĠForty": 601,
      "ings": 602,
      "peaker": 603,
      "ms": 604,
      "ĠSpeaker": 605,
      "Ġmember": 606,
      "Ġreferred": 607,
      "Ġomitted": 608,
      "ertain": 609,
      "ords": 610,
      "Ġen": 611,
      "one": 612,
      "anding": 613,
      "ĠW": 614,
      "lating": 615,
      "Ġpower": 616,
      "Ġtax": 617,
      "Ġ195": 618,
      "Ġ14": 619,
      "age": 620,
      "standing": 621,
      "Ġpurposes": 622,
      "ĠSeventh": 623,
      "Ġ15": 624,
      "Ġ1956": 625,
      "Ġwithin": 626,
      "ganisation": 627,
      "Ġ11119": 628,
      "withstanding": 629,
      "Ġpas": 630,
      "Ġcourt": 631,
      "eop": 632,
      "ry": 633,
      "rans": 634,
      "Ġqu": 635,
      "very": 636,
      "of": 637,
      "Ġins": 638,
      "ram": 639,
      "Ġ201": 640,
      "ĠTrib": 641,
      "Ġterritories": 642,
      "eople": 643,
      "Ġ200": 644,
      "Ġpart": 645,
      "Ġ1111956": 646,
      "hal": 647,
      "lig": 648,
      "nt": 649,
      "Ġtak": 650,
      "ceed": 651,
      "ĠMinist": 652,
      "Ġthereof": 653,
      "Ġincluding": 654,
      "ges": 655,
      "Ġ10": 656,
      "Ġauthority": 657,
      "Ġal": 658,
      "tif": 659,
      "Ġsaid": 660,
      "ang": 661,
      "Ġwords": 662,
      "Ġdate": 663,
      "olution": 664,
      "min": 665,
      "Ġri": 666,
      "Ġint": 667,
      "ational": 668,
      "ĠFund": 669,
      "ulation": 670,
      "umber": 671,
      "Ġinter": 672,
      "ĠSch": 673,
      "ices": 674,
      "ign": 675,
      "Ġwho": 676,
      "minist": 677,
      "cted": 678,
      "Ġ21": 679,
      "Ġpres": 680,
      "Ġlaws": 681,
      "ĠDistrict": 682,
      "ither": 683,
      "Ġrelation": 684,
      "Ġsubpar": 685,
      "ric": 686,
      "ĠPeople": 687,
      "Ġdire": 688,
      "ide": 689,
      "Ġsubparagraph": 690,
      "ue": 691,
      "Ġent": 692,
      "Ġ23": 693,
      "Ġone": 694,
      "utonom": 695,
      "ourth": 696,
      "utonomous": 697,
      "organisation": 698,
      "anch": 699,
      "ĠReg": 700,
      "Ġdee": 701,
      "ĠReorganisation": 702,
      "ral": 703,
      "ĠFirst": 704,
      "Ġpowers": 705,
      "ant": 706,
      "Ġ1976": 707,
      "ER": 708,
      "ĠProcla": 709,
      "ĠProclamation": 710,
      "Ġanything": 711,
      "medi": 712,
      "ĠAre": 713,
      "Ġforce": 714,
      "Ġrigh": 715,
      "mediate": 716,
      "Ġ18": 717,
      "ong": 718,
      "Ġconstitu": 719,
      "ments": 720,
      "Ġeither": 721,
      "Ġservice": 722,
      ".,": 723,
      "ving": 724,
      "Ġst": 725,
      "Ġfin": 726,
      "Ġeach": 727,
      "ĠCon": 728,
      "ĠPanch": 729,
      "Ġrelating": 730,
      "vel": 731,
      "ĠĠĠĠĠĠĠĠĠĠĠĠĠĠĠĠĠĠĠĠĠĠĠĠĠĠĠĠĠĠĠĠ": 732,
      "isting": 733,
      "ification": 734,
      "Ġarea": 735,
      "Ġappointed": 736,
      "ĠDepu": 737,
      "Ġyears": 738,
      "ĠDeputy": 739,
      "erc": 740,
      "Ġcertain": 741,
      "Ġrequ": 742,
      "Ġ26": 743,
      "Ġproceed": 744,
      "Ġexce": 745,
      "ĠOr": 746,
      "ief": 747,
      "cedure": 748,
      "ld": 749,
      "Ġapply": 750,
      "unic": 751,
      "Ġpassed": 752,
      "les": 753,
      "Ġautonomous": 754,
      "Ġbut": 755,
      "Ġbeing": 756,
      "iction": 757,
      "uring": 758,
      "ipal": 759,
      "bid": 760,
      "ven": 761,
      "ree": 762,
      "Ġbo": 763,
      "ĠHouses": 764,
      "ĠAss": 765,
      "Ġimmediate": 766,
      "ĠTribes": 767,
      "um": 768,
      "Ġamendment": 769,
      "tice": 770,
      "eneral": 771,
      "Ġpublic": 772,
      "ations": 773,
      "Ġibid": 774,
      "Ġjud": 775,
      "ĠPanchay": 776,
      "unc": 777,
      "Ġ1971": 778,
      "Ġ243": 779,
      "oney": 780,
      "Ġsoc": 781,
      "Ġseats": 782,
      "tra": 783,
      "ĠList": 784,
      "uris": 785,
      "Ġimmediately": 786,
      "diction": 787,
      "Ġpo": 788,
      "Ġ17": 789,
      "ĠAd": 790,
      "Ġexerc": 791,
      "................................": 792,
      "unicipal": 793,
      "urisdiction": 794,
      "mo": 795,
      "tro": 796,
      "Ġtw": 797,
      "Ġman": 798,
      "Ġexpir": 799,
      "gal": 800,
      "til": 801,
      "ast": 802,
      "ĠEx": 803,
      "Ġnotif": 804,
      "vi": 805,
      "Ġfunc": 806,
      "Ġdeemed": 807,
      "ish": 808,
      "Ġ30": 809,
      "Ġgo": 810,
      "tin": 811,
      "Ġass": 812,
      "ommend": 813,
      "olid": 814,
      "Ġmeans": 815,
      "ods": 816,
      "ĠChief": 817,
      "ĠJudge": 818,
      "een": 819,
      "ive": 820,
      "ound": 821,
      "ries": 822,
      "ĠCons": 823,
      "ules": 824,
      "Ġrecommend": 825,
      "Ġaccord": 826,
      "lan": 827,
      "ances": 828,
      "tent": 829,
      "ures": 830,
      "Ġed": 831,
      "Ġoper": 832,
      "Ġday": 833,
      "less": 834,
      "ath": 835,
      "ally": 836,
      "otwithstanding": 837,
      "Ġreserv": 838,
      "Ġjurisdiction": 839,
      "ixth": 840,
      "Ġappoint": 841,
      "Ġcomp": 842,
      "fourth": 843,
      "Ġ37": 844,
      "Ġnumber": 845,
      "ash": 846,
      "qual": 847,
      "Ġii": 848,
      "Ġmatter": 849,
      "ĠConsolid": 850,
      "ĠServ": 851,
      "ĠApp": 852,
      "Ġ22": 853,
      "sec": 854,
      "Ġresolution": 855,
      "ecess": 856,
      "pecial": 857,
      "forms": 858,
      "ĠAreas": 859,
      "wise": 860,
      "Ġhold": 861,
      "ĠMe": 862,
      "ĠMunicipal": 863,
      "Ġotherwise": 864,
      "ĠProvis": 865,
      "RT": 866,
      "tw": 867,
      "aries": 868,
      "Ġ34": 869,
      "termin": 870,
      "ĠReforms": 871,
      "ĠAssam": 872,
      "di": 873,
      "Ġtrans": 874,
      "Ġsubcla": 875,
      "Ġdetermin": 876,
      "Ġadminist": 877,
      "ĠConsolidated": 878,
      "aj": 879,
      "Ġaff": 880,
      "Ġwas": 881,
      "ĠPow": 882,
      "Ġevery": 883,
      "ional": 884,
      "Ġup": 885,
      "Ġconsid": 886,
      "Ġrules": 887,
      "Ġunless": 888,
      "ose": 889,
      "Ġexisting": 890,
      "Ġappro": 891,
      "pos": 892,
      "Ġuntil": 893,
      "Ġexpiration": 894,
      "LE": 895,
      "low": 896,
      "uc": 897,
      "Ġout": 898,
      "Ġduring": 899,
      "Ġgiv": 900,
      "Ġadd": 901,
      "Ġpurpose": 902,
      "second": 903,
      "gram": 904,
      "val": 905,
      "Ġhim": 906,
      "ress": 907,
      "ection": 908,
      "Ġpersons": 909,
      "Ġques": 910,
      "Ġsal": 911,
      "Ġcas": 912,
      "ĠPat": 913,
      "Ġ27": 914,
      "Ġnecess": 915,
      "Ġprocedure": 916,
      "ultu": 917,
      "oint": 918,
      "ustice": 919,
      "Ġoffic": 920,
      "Ġnecessary": 921,
      "Ġsit": 922,
      "ĠĠĠ": 923,
      "Ġco": 924,
      "Ġbetw": 925,
      "ĠTh": 926,
      "Ġ32": 927,
      "Ġelection": 928,
      "201": 929,
      "Ġeduc": 930,
      "Ġbetween": 931,
      "gment": 932,
      "Ġconfer": 933,
      "Ġcontin": 934,
      "Ġduties": 935,
      "ifications": 936,
      "ative": 937,
      "lo": 938,
      "ne": 939,
      "Ġtra": 940,
      "200": 941,
      "ency": 942,
      "Ġab": 943,
      "ĠSpecial": 944,
      "Ġ36": 945,
      "ĠBen": 946,
      "Ġgr": 947,
      "half": 948,
      "Ġproceedings": 949,
      "Ġtwo": 950,
      "ap": 951,
      "tt": 952,
      "ust": 953,
      "Ġact": 954,
      "Ġne": 955,
      "Ġclas": 956,
      "Ġvac": 957,
      "Ġservices": 958,
      "Ġinto": 959,
      "Ġconsider": 960,
      "ĠBengal": 961,
      "ctions": 962,
      "peal": 963,
      "ecu": 964,
      "Ġ1978": 965,
      "Ġrights": 966,
      "Ġfinanc": 967,
      "Ġexcept": 968,
      "Ġsubclause": 969,
      "ART": 970,
      "ised": 971,
      "Ġ25": 972,
      "ĠNa": 973,
      "Ġwhere": 974,
      "ĠPatgram": 975,
      "Ġfol": 976,
      "Ġbehalf": 977,
      "iling": 978,
      "ĠWest": 979,
      "Ġnotification": 980,
      "Ġfunctions": 981,
      "Ġfollow": 982,
      "iture": 983,
      "Ġfur": 984,
      "ird": 985,
      "Ġallow": 986,
      "Ġsection": 987,
      "eiling": 988,
      "mp": 989,
      "Ġam": 990,
      "ĠPublic": 991,
      "Ġthose": 992,
      "ĠTerritor": 993,
      "Ġ33": 994,
      "ĠNotwithstanding": 995,
      "pective": 996,
      "Ġelected": 997,
      "ricultu": 998,
      "iti": 999,
      "ved": 1000,
      "Ġes": 1001,
      "its": 1002,
      "Ġrece": 1003,
      "out": 1004,
      "enditure": 1005,
      "Ġprovide": 1006,
      "Ġappl": 1007,
      "astes": 1008,
      "Ġgoods": 1009,
      "ĠService": 1010,
      "iz": 1011,
      "ner": 1012,
      "Ġ28": 1013,
      "198": 1014,
      "Ġdirect": 1015,
      "ian": 1016,
      "Ġtrib": 1017,
      "ention": 1018,
      "itte": 1019,
      "Ġreas": 1020,
      "Ġareas": 1021,
      "Ġexpenditure": 1022,
      "perty": 1023,
      "Ġdecla": 1024,
      "ĠMinisters": 1025,
      "Ġfinancial": 1026,
      "ea": 1027,
      "tend": 1028,
      "ĠCeiling": 1029,
      "ĠPART": 1030,
      "ĠIII": 1031,
      "ome": 1032,
      "Ġname": 1033,
      "ĠMad": 1034,
      "ĠRaj": 1035,
      "Ġhaving": 1036,
      "Ġmaking": 1037,
      "1979": 1038,
      "ences": 1039,
      "Ġwhether": 1040,
      "ĠProvisions": 1041,
      "itiz": 1042,
      "ration": 1043,
      "Ġamend": 1044,
      "Ġsix": 1045,
      "ĠSec": 1046,
      "ĠCastes": 1047,
      "Ġmon": 1048,
      "ĠJustice": 1049,
      "Ġreserved": 1050,
      "ishe": 1051,
      "ĠMiz": 1052,
      "Ġcondi": 1053,
      "undred": 1054,
      "port": 1055,
      "ĠRegional": 1056,
      "Ġmanner": 1057,
      "Ġupon": 1058,
      "Ġquestion": 1059,
      "Ġconditions": 1060,
      "ata": 1061,
      "ald": 1062,
      "Ġmod": 1063,
      "Ġmoney": 1064,
      "Ġ199": 1065,
      "Ġexecu": 1066,
      "1977": 1067,
      "ĠJudges": 1068,
      "ĠPower": 1069,
      "ik": 1070,
      "ihar": 1071,
      "tal": 1072,
      "ere": 1073,
      "erative": 1074,
      "Ġcitiz": 1075,
      "Ġ1974": 1076,
      "Ġcontain": 1077,
      "ĠFortysecond": 1078,
      "Ġpost": 1079,
      "ain": 1080,
      "Ġtotal": 1081,
      "Ġchar": 1082,
      "ĠAnd": 1083,
      "Ġremo": 1084,
      "ount": 1085,
      "ĠBihar": 1086,
      "Ġtaken": 1087,
      "Ġaccordance": 1088,
      "ine": 1089,
      "inance": 1090,
      "ĠSixth": 1091,
      "Ġ206": 1092,
      "Ġgro": 1093,
      "Ġexercise": 1094,
      "Ġallowances": 1095,
      "crib": 1096,
      "pri": 1097,
      "so": 1098,
      "Ġpay": 1099,
      "Ġwere": 1100,
      "ĠII": 1101,
      "Ġlang": 1102,
      "ĠVice": 1103,
      "ĠFortyfourth": 1104,
      "Ġalso": 1105,
      "ricultural": 1106,
      "Ġlangu": 1107,
      "General": 1108,
      "Ġra": 1109,
      "Ġmore": 1110,
      "irty": 1111,
      "amil": 1112,
      "Ġsubs": 1113,
      "operative": 1114,
      "ancy": 1115,
      "ĠXX": 1116,
      "ĠPanchayats": 1117,
      "ual": 1118,
      "Ġsa": 1119,
      "Ġpol": 1120,
      "Ġiss": 1121,
      "Ġinstitu": 1122,
      "Ġboth": 1123,
      "hra": 1124,
      "ants": 1125,
      "omin": 1126,
      "ĠOne": 1127,
      "ĠMinister": 1128,
      "Ġcases": 1129,
      "Ġfurther": 1130,
      "EN": 1131,
      "ces": 1132,
      "et": 1133,
      "kh": 1134,
      "lf": 1135,
      "Ġthey": 1136,
      "Ġdiss": 1137,
      "Ġprovided": 1138,
      "196": 1139,
      "Ġsocie": 1140,
      "ished": 1141,
      "ĠAndhra": 1142,
      "ĠAr": 1143,
      "anj": 1144,
      "Ġexc": 1145,
      "Ġadv": 1146,
      "ivil": 1147,
      "anga": 1148,
      "oundary": 1149,
      "hip": 1150,
      "pres": 1151,
      "Ġap": 1152,
      "iness": 1153,
      "erg": 1154,
      "Ġfar": 1155,
      "Ġform": 1156,
      "ths": 1157,
      "ĠHundred": 1158,
      "ĠCourts": 1159,
      "Ġparty": 1160,
      "usiness": 1161,
      "Ġoperation": 1162,
      "Ġconferred": 1163,
      "ired": 1164,
      "way": 1165,
      "oram": 1166,
      "Ġch": 1167,
      "Ġcor": 1168,
      "Ġappointment": 1169,
      "Ġcooperative": 1170,
      "ĠNadu": 1171,
      "ĠMizoram": 1172,
      "Ġ2061979": 1173,
      "tc": 1174,
      "wn": 1175,
      "inth": 1176,
      "Ġpla": 1177,
      "char": 1178,
      "Ġless": 1179,
      "Ġdisqual": 1180,
      "velop": 1181,
      "Ġconsideration": 1182,
      "lish": 1183,
      "tation": 1184,
      "ves": 1185,
      "Ġpri": 1186,
      "Ġfa": 1187,
      "icial": 1188,
      "Ġetc": 1189,
      "ĠTamil": 1190,
      "Ġ35": 1191,
      "Ġ1969": 1192,
      "Ġreference": 1193,
      "Ġduty": 1194,
      "ibari": 1195,
      "Ġcourts": 1196,
      "ĠSecond": 1197,
      "ile": 1198,
      "Ġland": 1199,
      "ĠMa": 1200,
      "Ġregion": 1201,
      "Ġtransfer": 1202,
      "Ġmonths": 1203,
      "Ġlanguage": 1204,
      "HA": 1205,
      "Ġter": 1206,
      "ĠAn": 1207,
      "lection": 1208,
      "third": 1209,
      "ify": 1210,
      "ĠRigh": 1211,
      "tab": 1212,
      "Ġcommun": 1213,
      "Ġconst": 1214,
      "Ġdisc": 1215,
      "encies": 1216,
      "ĠNothing": 1217,
      "ension": 1218,
      "Ġsitting": 1219,
      "Ġeducation": 1220,
      "loy": 1221,
      "ttar": 1222,
      "Ġexecutive": 1223,
      "ES": 1224,
      "Ġtheir": 1225,
      "reed": 1226,
      "Ġpr": 1227,
      "ĠSC": 1228,
      "Ġcivil": 1229,
      "Ġfirst": 1230,
      "Ġwe": 1231,
      "ould": 1232,
      "Ġdo": 1233,
      "olition": 1234,
      "ĠEigh": 1235,
      "unal": 1236,
      "Ġregu": 1237,
      "ĠVI": 1238,
      "ards": 1239,
      "Ġtaxes": 1240,
      "Ġconstituted": 1241,
      "trol": 1242,
      "Ġfollowing": 1243,
      "Ġestab": 1244,
      "velopment": 1245,
      "Ġconstru": 1246,
      "IS": 1247,
      "plan": 1248,
      "ĠCom": 1249,
      "Ġrepres": 1250,
      "ĠIf": 1251,
      "ĠUttar": 1252,
      "Ġdef": 1253,
      "ody": 1254,
      "ĠEnt": 1255,
      "Ġvot": 1256,
      "Ġru": 1257,
      "Ġprescrib": 1258,
      "ĠMunicipalities": 1259,
      "Ġreason": 1260,
      "Ġground": 1261,
      "planation": 1262,
      "LA": 1263,
      "PT": 1264,
      "og": 1265,
      "Ġsame": 1266,
      "Ġwill": 1267,
      "Ġsupp": 1268,
      "ĠTrans": 1269,
      "ĠNational": 1270,
      "Ġ1973": 1271,
      "ĠIndian": 1272,
      "ession": 1273,
      "Ġ1960": 1274,
      "Ġdeclared": 1275,
      "President": 1276,
      "long": 1277,
      "ising": 1278,
      "isition": 1279,
      "entral": 1280,
      "ĠCentral": 1281,
      "Ġ39": 1282,
      "itional": 1283,
      "Ġwhen": 1284,
      "Ġ1986": 1285,
      "Ġagree": 1286,
      "Ġ311977": 1287,
      "position": 1288,
      "mploy": 1289,
      "ĠVicePresident": 1290,
      "ores": 1291,
      "Ġx": 1292,
      "Ġbusiness": 1293,
      "ĠAud": 1294,
      "ital": 1295,
      "Ġwithout": 1296,
      "teration": 1297,
      "tical": 1298,
      "Ġ1972": 1299,
      "Ġnotwithstanding": 1300,
      "Ġconsul": 1301,
      "Ġloc": 1302,
      "Ġpresent": 1303,
      "Ġrecommendations": 1304,
      "Ġadministration": 1305,
      "Ġclasses": 1306,
      "em": 1307,
      "pers": 1308,
      "uses": 1309,
      "ision": 1310,
      "ĠCHA": 1311,
      "Ġfill": 1312,
      "Ġproperty": 1313,
      "rac": 1314,
      "ĠHald": 1315,
      "Ġonly": 1316,
      "Ġ1975": 1317,
      "Ġsubse": 1318,
      "Ġexpress": 1319,
      "Ġ71": 1320,
      "III": 1321,
      "Ġlev": 1322,
      "Ġ2003": 1323,
      "Ġlocal": 1324,
      "ĠHaldibari": 1325,
      "Ġk": 1326,
      "Ġfore": 1327,
      "Ġwat": 1328,
      "roll": 1329,
      "Ġlaid": 1330,
      "Ġrespective": 1331,
      "ĠNag": 1332,
      "Ġdevelopment": 1333,
      "opulation": 1334,
      "Ġheld": 1335,
      "Ġlevel": 1336,
      "form": 1337,
      "ashtra": 1338,
      "Ġcontinue": 1339,
      "ĠMahar": 1340,
      "10": 1341,
      "hata": 1342,
      "itical": 1343,
      "tit": 1344,
      "enth": 1345,
      "ĠAl": 1346,
      "Ġdated": 1347,
      "Ġprot": 1348,
      "Ġpartic": 1349,
      "ĠSubject": 1350,
      "Ġtherein": 1351,
      "ĠProvin": 1352,
      "ĠCommitte": 1353,
      "ĠXV": 1354,
      "ĠRegulation": 1355,
      "ĠPanchayat": 1356,
      "Ġapplication": 1357,
      "Ġmodifications": 1358,
      "Ġpolitical": 1359,
      "inhata": 1360,
      "ator": 1361,
      "Ġpopulation": 1362,
      "ĠAg": 1363,
      "Ġbec": 1364,
      "Ġreport": 1365,
      "ending": 1366,
      "eghal": 1367,
      "ĠFif": 1368,
      "ĠDinhata": 1369,
      "quisition": 1370,
      "aya": 1371,
      "ular": 1372,
      "Ġvo": 1373,
      "Ġentit": 1374,
      "Ġjudgment": 1375,
      "Ġtrade": 1376,
      "Ġmoneys": 1377,
      "charge": 1378,
      "Ġrepresent": 1379,
      "PTER": 1380,
      "ĠMaharashtra": 1381,
      "eghalaya": 1382,
      "Ġentitled": 1383,
      "hy": 1384,
      "klig": 1385,
      "mu": 1386,
      "merg": 1387,
      "enty": 1388,
      "Ġcl": 1389,
      "lations": 1390,
      "Ġrelig": 1391,
      "ĠTax": 1392,
      "Ġ38": 1393,
      "Ġextend": 1394,
      "duct": 1395,
      "Ġprovid": 1396,
      "tern": 1397,
      "ĠBod": 1398,
      "Ġspecial": 1399,
      "ĠBills": 1400,
      "Ġ2000": 1401,
      "ĠMeklig": 1402,
      "Ġaffir": 1403,
      "Ġappropri": 1404,
      "Ġgiven": 1405,
      "Ġamended": 1406,
      "Ġterm": 1407,
      "Ġconstrued": 1408,
      "ĠCHAPTER": 1409,
      "ĠMekliganj": 1410,
      "bolition": 1411,
      "ees": 1412,
      "ks": 1413,
      "sp": 1414,
      "uance": 1415,
      "tial": 1416,
      "Ġcol": 1417,
      "ĠAND": 1418,
      "ĠAbolition": 1419,
      "other": 1420,
      "own": 1421,
      "Ġspecify": 1422,
      "1972": 1423,
      "Ġagain": 1424,
      "ible": 1425,
      "ĠExplanation": 1426,
      "Ġassent": 1427,
      "Ġgiving": 1428,
      "ii": 1429,
      "mir": 1430,
      "ued": 1431,
      "ward": 1432,
      "Ġ................................": 1433,
      "Ġthem": 1434,
      "ered": 1435,
      "Ġmin": 1436,
      "Ġbelong": 1437,
      "Ġemploy": 1438,
      "ĠTen": 1439,
      "ĠHold": 1440,
      "ĠMeghalaya": 1441,
      "amari": 1442,
      "Ġ2019": 1443,
      "Ġarticles": 1444,
      "ĠElection": 1445,
      "Ġval": 1446,
      "ĠLegislatures": 1447,
      "ĠJam": 1448,
      "achal": 1449,
      "ĠKash": 1450,
      "Ġentry": 1451,
      "hya": 1452,
      "cc": 1453,
      "Ġop": 1454,
      "orth": 1455,
      "ĠSik": 1456,
      "Ġcea": 1457,
      "oun": 1458,
      "ĠBh": 1459,
      "ĠOmitted": 1460,
      "Ġconn": 1461,
      "Ġ81": 1462,
      "erala": 1463,
      "ĠKerala": 1464,
      "Ġright": 1465,
      "apter": 1466,
      "ĠMadhya": 1467,
      "Ġposts": 1468,
      "ĠJammu": 1469,
      "ĠKashmir": 1470,
      "Ġcease": 1471,
      "omen": 1472,
      "ĠMoney": 1473,
      "Ġ44": 1474,
      "ĠNorth": 1475,
      "Ġcontrol": 1476,
      "ĠChapter": 1477,
      "Ġelections": 1478,
      "ĠXI": 1479,
      "Ġcompe": 1480,
      "Ġtake": 1481,
      "Ġdetermined": 1482,
      "Ġappeal": 1483,
      "mergency": 1484,
      "ounts": 1485,
      "go": 1486,
      "ged": 1487,
      "kim": 1488,
      "pram": 1489,
      "ukh": 1490,
      "Ġcall": 1491,
      "Ġwor": 1492,
      "ctor": 1493,
      "ĠTri": 1494,
      "resp": 1495,
      "Ġwhile": 1496,
      "Ġmee": 1497,
      "Ġregard": 1498,
      "pura": 1499,
      "Ġamount": 1500,
      "ĠAuditor": 1501,
      "ĠAlteration": 1502,
      "Ġparticular": 1503,
      "ĠAgricultural": 1504,
      "ĠHoldings": 1505,
      "ĠSikkim": 1506,
      "pramukh": 1507,
      "ĠTripura": 1508,
      "12": 1509,
      "DU": 1510,
      "inc": 1511,
      "Ġconstitution": 1512,
      "Ġwomen": 1513,
      "Ġdif": 1514,
      "Ġ194": 1515,
      "ĠBoundary": 1516,
      "ĠName": 1517,
      "Ġ202": 1518,
      "Ġdem": 1519,
      "HEDU": 1520,
      "Ġreferences": 1521,
      "Ġaccounts": 1522,
      "Ġconstituencies": 1523,
      "Ġrequired": 1524,
      "ĠOrder": 1525,
      "tract": 1526,
      "ĠAdminist": 1527,
      "ĠAppoint": 1528,
      "Ġnamely": 1529,
      "Ġcorresp": 1530,
      "ĠSCHEDU": 1531,
      "Ġcompetent": 1532,
      "ĠAuditorGeneral": 1533,
      "Ġcorrespond": 1534,
      "ĠSCHEDULE": 1535,
      "are": 1536,
      "bay": 1537,
      "Ġob": 1538,
      "Ġfig": 1539,
      "ombay": 1540,
      "illa": 1541,
      "ility": 1542,
      "ilities": 1543,
      "Ġprof": 1544,
      "urr": 1545,
      "ĠBombay": 1546,
      "Ġproviso": 1547,
      "ĠEmergency": 1548,
      "issa": 1549,
      "ĠChh": 1550,
      "Ġaction": 1551,
      "Ġnothing": 1552,
      "Ġregulation": 1553,
      "Ġprevi": 1554,
      "ĠOrissa": 1555,
      "Ġboard": 1556,
      "vile": 1557,
      "ĠRajpramukh": 1558,
      "Ġremoval": 1559,
      "Ġinstitutions": 1560,
      "Ġsociety": 1561,
      "Ġexpression": 1562,
      "Ġcorresponding": 1563,
      "Ġprevious": 1564,
      "RO": 1565,
      "eas": 1566,
      "ung": 1567,
      "ugh": 1568,
      "tis": 1569,
      "ested": 1570,
      "Ġwould": 1571,
      "ladesh": 1572,
      "Ġord": 1573,
      "lement": 1574,
      "Ġrest": 1575,
      "199": 1576,
      "Ġsoon": 1577,
      "Ġcause": 1578,
      "ĠLands": 1579,
      "angladesh": 1580,
      "Ġpos": 1581,
      "athab": 1582,
      "Ġabs": 1583,
      "Ġreceiv": 1584,
      "Ġcitizens": 1585,
      "Ġcontained": 1586,
      "Ġdissolution": 1587,
      "Ġplace": 1588,
      "Ġwater": 1589,
      "Ġrespectively": 1590,
      "ble": 1591,
      "jor": 1592,
      "Ġpubl": 1593,
      "Ġpending": 1594,
      "ĠAR": 1595,
      "ĠPill": 1596,
      "Ġrel": 1597,
      "Ġrem": 1598,
      "Ġrepeal": 1599,
      "Ġmajor": 1600,
      "asth": 1601,
      "Ġterritorial": 1602,
      "Ġrespects": 1603,
      "Ġdischarge": 1604,
      "Ġseat": 1605,
      "Ġren": 1606,
      "Ġdecision": 1607,
      "Ġ211": 1608,
      "2016": 1609,
      "Ġgrant": 1610,
      "ways": 1611,
      "Ġmeeting": 1612,
      "illage": 1613,
      "ĠPillar": 1614,
      "asthan": 1615,
      "IR": 1616,
      "jar": 1617,
      "li": 1618,
      "ned": 1619,
      "Ġlia": 1620,
      "erce": 1621,
      "Ġbody": 1622,
      "Ġpaid": 1623,
      "Ġprac": 1624,
      "astern": 1625,
      "Ġprom": 1626,
      "ragment": 1627,
      "ĠMathab": 1628,
      "urung": 1629,
      "Ġimp": 1630,
      "Ġimpo": 1631,
      "Ġperform": 1632,
      "ptroll": 1633,
      "Ġprevent": 1634,
      "onomic": 1635,
      "Ġ2016": 1636,
      "umbered": 1637,
      "Ġdays": 1638,
      "Ġcompr": 1639,
      "Ġsalaries": 1640,
      "Ġofficers": 1641,
      "Ġcho": 1642,
      "ĠComptroll": 1643,
      "ĠEntries": 1644,
      "Ġprescribed": 1645,
      "Ġcolle": 1646,
      "Ġagainst": 1647,
      "ĠBhurung": 1648,
      "ĠComptroller": 1649,
      "ĠBhurungamari": 1650,
      "In": 1651,
      "kward": 1652,
      "ujar": 1653,
      "Ġinst": 1654,
      "Ġfees": 1655,
      "Ġmo": 1656,
      "Ġmention": 1657,
      "Ġbear": 1658,
      "ĠThere": 1659,
      "ĠGujar": 1660,
      "Ġresign": 1661,
      "TIC": 1662,
      "ute": 1663,
      "Ġcommerce": 1664,
      "ixation": 1665,
      "Ġdisp": 1666,
      "airs": 1667,
      "Ġ134": 1668,
      "ackward": 1669,
      "Ġ1950": 1670,
      "Ġqual": 1671,
      "Ġ239": 1672,
      "Ġexcep": 1673,
      "ĠOrd": 1674,
      "ĠThirty": 1675,
      "Ġgrants": 1676,
      "Ġnew": 1677,
      "Ġtribunal": 1678,
      "ĠRajasthan": 1679,
      "Ġdisqualified": 1680,
      "Ġagreement": 1681,
      "Ġlevied": 1682,
      "ĠProvince": 1683,
      "vileges": 1684,
      "Ġrenumbered": 1685,
      "ning": 1686,
      "ok": 1687,
      "Ġcar": 1688,
      "Ġdra": 1689,
      "Ġanother": 1690,
      "ĠLa": 1691,
      "ĠFragment": 1692,
      "ĠFixation": 1693,
      "Ġvillage": 1694,
      "Ġjoint": 1695,
      "Ġ1961": 1696,
      "ensus": 1697,
      "Ġentries": 1698,
      "venue": 1699,
      "Ġrecommendation": 1700,
      "Ġdetermine": 1701,
      "Ġissued": 1702,
      "ENT": 1703,
      "ĠArtic": 1704,
      "Ġestablish": 1705,
      "Ġfigures": 1706,
      "Ġmentioned": 1707,
      "ĠGujarat": 1708,
      "AT": 1709,
      "Eastern": 1710,
      "Omitted": 1711,
      "ras": 1712,
      "rator": 1713,
      "Ġcensus": 1714,
      "ĠAc": 1715,
      "Ġdone": 1716,
      "ĠTw": 1717,
      "ĠIX": 1718,
      "tur": 1719,
      "herry": 1720,
      "mbers": 1721,
      "Ġconc": 1722,
      "ĠCouncils": 1723,
      "istrib": 1724,
      "ordin": 1725,
      "Ġ1987": 1726,
      "ĠChairpers": 1727,
      "Ġ169": 1728,
      "Ġrequire": 1729,
      "Ġiii": 1730,
      "ĠMunicipality": 1731,
      "LES": 1732,
      "Ġclass": 1733,
      "Ġcitizen": 1734,
      "Ġcharged": 1735,
      "ĠRights": 1736,
      "Ġaffirmation": 1737,
      "ĠNorthEastern": 1738,
      "Ġwork": 1739,
      "lus": 1740,
      "ten": 1741,
      "Ġte": 1742,
      "Ġover": 1743,
      "Ġage": 1744,
      "inion": 1745,
      "Ġpension": 1746,
      "ĠSu": 1747,
      "Ġfive": 1748,
      "Ġway": 1749,
      "rov": 1750,
      "Ġthirty": 1751,
      "Ġmain": 1752,
      "ĠFourth": 1753,
      "ĠBangladesh": 1754,
      "ĠOff": 1755,
      "Ġclauses": 1756,
      "Ġjudicial": 1757,
      "ĠAdv": 1758,
      "Ġoperate": 1759,
      "Ġholding": 1760,
      "Ġeducational": 1761,
      "ĠTerritory": 1762,
      "ĠXXI": 1763,
      "Ġprivileges": 1764,
      "Ġprinc": 1765,
      "Ġregulations": 1766,
      "empor": 1767,
      "Ġbecome": 1768,
      "ĠTenancy": 1769,
      "Ġopinion": 1770,
      "Ġ2111972": 1771,
      "istribu": 1772,
      "11": 1773,
      "EM": 1774,
      "NG": 1775,
      "Prov": 1776,
      "St": 1777,
      "gis": 1778,
      "ient": 1779,
      "ninth": 1780,
      "sen": 1781,
      "vant": 1782,
      "xt": 1783,
      "Ġend": 1784,
      "Ġten": 1785,
      "Ġoath": 1786,
      "Ġart": 1787,
      "aland": 1788,
      "ĠCo": 1789,
      "Ġfit": 1790,
      "land": 1791,
      "Ġann": 1792,
      "Ġsusp": 1793,
      "Ġ42": 1794,
      "Ġaris": 1795,
      "Ġgeneral": 1796,
      "ourse": 1797,
      "Ġlegis": 1798,
      "Ġ2011": 1799,
      "igned": 1800,
      "Ġwhole": 1801,
      "Ġdirection": 1802,
      "Ġaccording": 1803,
      "Ġaffairs": 1804,
      "ĠTerritories": 1805,
      "1987": 1806,
      "ĠMadras": 1807,
      "Ġexclud": 1808,
      "ĠNagaland": 1809,
      "Ġbelonging": 1810,
      "Ġreceived": 1811,
      "ĠARTIC": 1812,
      "Ind": 1813,
      "OU": 1814,
      "ati": 1815,
      "act": 1816,
      "ave": 1817,
      "sixth": 1818,
      "spective": 1819,
      "the": 1820,
      "Ġthen": 1821,
      "ining": 1822,
      "Ġbackward": 1823,
      "Ġplan": 1824,
      "Ġinqu": 1825,
      "itation": 1826,
      "Ġrev": 1827,
      "Ġdes": 1828,
      "ild": 1829,
      "Ġnomin": 1830,
      "rimin": 1831,
      "duced": 1832,
      "ĠNine": 1833,
      "Ġ55": 1834,
      "Ġdet": 1835,
      "Ġacting": 1836,
      "iples": 1837,
      "Ġafores": 1838,
      "Ġdistricts": 1839,
      "ĠWhe": 1840,
      "Ġpayment": 1841,
      "Ġsubstitu": 1842,
      "lfare": 1843,
      "Ġxx": 1844,
      "Ġconsultation": 1845,
      "going": 1846,
      "Ġcalled": 1847,
      "Ġdemand": 1848,
      "Ġorders": 1849,
      "State": 1850,
      "Ġaforesaid": 1851,
      "apt": 1852,
      "conomic": 1853,
      "ys": 1854,
      "Ġcust": 1855,
      "ĠAll": 1856,
      "ĠPRO": 1857,
      "Ġrele": 1858,
      "ical": 1859,
      "ĠDomin": 1860,
      "ĠNinth": 1861,
      "aman": 1862,
      "ĠProcedure": 1863,
      "ĠEvery": 1864,
      "Ġ1968": 1865,
      "Ġlet": 1866,
      "Ġincludes": 1867,
      "Ġaccount": 1868,
      "Ġagreed": 1869,
      "Ġ1951": 1870,
      "Ġfinal": 1871,
      "Ġamendments": 1872,
      "Ġ371": 1873,
      "Ġsalary": 1874,
      "Ġpayable": 1875,
      "ĠEighty": 1876,
      "Ġrule": 1877,
      "ĠTransfer": 1878,
      "Ġkn": 1879,
      "Ġforegoing": 1880,
      "ĠCommittee": 1881,
      "Ġdiffer": 1882,
      "tracts": 1883,
      "ĠAcquisition": 1884,
      "Ġ1692016": 1885,
      "emporary": 1886,
      "Provided": 1887,
      "ĠARTICLES": 1888,
      "hi": 1889,
      "lication": 1890,
      "ests": 1891,
      "Ġfif": 1892,
      "rough": 1893,
      "Ġretro": 1894,
      "Ġdistribu": 1895,
      "atement": 1896,
      "Ġeconomic": 1897,
      "endix": 1898,
      "duction": 1899,
      "ĠFinance": 1900,
      "ervation": 1901,
      "Ġcommitte": 1902,
      "Ġ1963": 1903,
      "Ġmembership": 1904,
      "teenth": 1905,
      "ĠArea": 1906,
      "Ġstatement": 1907,
      "ĠContent": 1908,
      "ĠĠĠĠĠĠĠĠĠĠĠĠĠĠĠĠĠĠĠĠĠĠĠĠĠĠĠĠĠĠĠĠĠĠĠĠĠĠĠĠĠĠĠĠĠĠĠĠ": 1909,
      "ĠAppendix": 1910,
      "Ġvacancy": 1911,
      "Ġvoting": 1912,
      "Ġinstru": 1913,
      "Ġexceptions": 1914,
      "ĠLaw": 1915,
      "ĠNinety": 1916,
      "Ġdetention": 1917,
      "ĠDominion": 1918,
      "Ġretrospective": 1919,
      "ĠContents": 1920,
      "af": 1921,
      "hib": 1922,
      "vour": 1923,
      "Ġbas": 1924,
      "Ġceas": 1925,
      "ĠCertain": 1926,
      "ĠAng": 1927,
      "ĠPri": 1928,
      "Ġnat": 1929,
      "Ġnational": 1930,
      "Ġused": 1931,
      "ĠHin": 1932,
      "ĠGoa": 1933,
      "ĠDis": 1934,
      "Ġvested": 1935,
      "Ġallot": 1936,
      "Ġconsist": 1937,
      "Ġlim": 1938,
      "Ġ1966": 1939,
      "Ġelector": 1940,
      "ĠKar": 1941,
      "agement": 1942,
      "Ġintro": 1943,
      "ĠAdd": 1944,
      "motion": 1945,
      "Ġfunction": 1946,
      "ĠApplication": 1947,
      "Ġamong": 1948,
      "Ġissue": 1949,
      "Ġcommunity": 1950,
      "Ġvotes": 1951,
      "Ġsubsection": 1952,
      "ĠTaxes": 1953,
      "ĠBoda": 1954,
      "Ġvalid": 1955,
      "Ġconnection": 1956,
      "Ġabsence": 1957,
      "Ġpublished": 1958,
      "Ġprinciples": 1959,
      "IC": 1960,
      "ase": 1961,
      "dra": 1962,
      "iu": 1963,
      "ious": 1964,
      "ues": 1965,
      "uch": 1966,
      "uri": 1967,
      "Ġsent": 1968,
      "ort": 1969,
      "ĠCla": 1970,
      "ana": 1971,
      "pees": 1972,
      "ĠParagraph": 1973,
      "olved": 1974,
      "Ġresp": 1975,
      "Ġwithdra": 1976,
      "Ġ41": 1977,
      "Ġconte": 1978,
      "ĠProperty": 1979,
      "Ġ57": 1980,
      "Ġconsisting": 1981,
      "Ġadapt": 1982,
      "Ġincident": 1983,
      "Ġregul": 1984,
      "Ġ1984": 1985,
      "ports": 1986,
      "Ġagricultural": 1987,
      "Ġ2015": 1988,
      "Ġproceeds": 1989,
      "vention": 1990,
      "Ġreceip": 1991,
      "Ġtribal": 1992,
      "Ġwelfare": 1993,
      "Ġrupees": 1994,
      "Ġsupply": 1995,
      "Ġrepresentation": 1996,
      "Ġprovides": 1997,
      "ĠChhit": 1998,
      "Ġmajority": 1999,
      "Ġcomprised": 2000,
      "ĠTwenty": 2001,
      "Ġsubstituted": 2002,
      "AL": 2003,
      "IT": 2004,
      "ha": 2005,
      "jab": 2006,
      "just": 2007,
      "lhi": 2008,
      "pre": 2009,
      "tig": 2010,
      "ited": 2011,
      "ĠPun": 2012,
      "Ġread": 2013,
      "Ġretur": 2014,
      "Ġthree": 2015,
      "ĠĠĠĠĠĠ": 2016,
      "rative": 2017,
      "Ġhand": 2018,
      "ĠRest": 2019,
      "Ġ45": 2020,
      "ĠDaman": 2021,
      "ĠDiu": 2022,
      "Ġconduct": 2023,
      "quent": 2024,
      "Ġ110": 2025,
      "Ġ1962": 2026,
      "Ġcouncil": 2027,
      "ganj": 2028,
      "Ġenfor": 2029,
      "Ġtakes": 2030,
      "Ġsoci": 2031,
      "Ġsocial": 2032,
      "oundaries": 2033,
      "ĠMembers": 2034,
      "Ġsatis": 2035,
      "Ġsocieties": 2036,
      "reedom": 2037,
      "Ġvote": 2038,
      "ĠTransitional": 2039,
      "Ġappropriate": 2040,
      "Ġchosen": 2041,
      "Ġdifferent": 2042,
      "Ġincidental": 2043,
      "ĠPunjab": 2044,
      "Ġsatisf": 2045,
      "IONS": 2046,
      "fin": 2047,
      "ret": 2048,
      "ory": 2049,
      "ĠCap": 2050,
      "Ġmess": 2051,
      "Ġsums": 2052,
      "Ġthin": 2053,
      "chan": 2054,
      "cept": 2055,
      "Ġuse": 2056,
      "Ġextent": 2057,
      "TIV": 2058,
      "ages": 2059,
      "ĠEst": 2060,
      "Ġhad": 2061,
      "Ġinclude": 2062,
      "Ġincluded": 2063,
      "ĠDelhi": 2064,
      "ĠXII": 2065,
      "Ġpass": 2066,
      "Ġ2014": 2067,
      "ligible": 2068,
      "Ġinterest": 2069,
      "Ġdirections": 2070,
      "Ġexercis": 2071,
      "Ġnotified": 2072,
      "Ġreservation": 2073,
      "Ġsale": 2074,
      "ĠThis": 2075,
      "Ġsaf": 2076,
      "1963": 2077,
      "vestig": 2078,
      "ĠRight": 2079,
      "Ġregulating": 2080,
      "Ġsubsequent": 2081,
      "Ġreligious": 2082,
      "Ġ................................................": 2083,
      "ĠAppointment": 2084,
      "Ġnominated": 2085,
      "ĠAdded": 2086,
      "Ġrespons": 2087,
      "pretation": 2088,
      "OR": 2089,
      "eigh": 2090,
      "ful": 2091,
      "tection": 2092,
      "Ġro": 2093,
      "Ġaffect": 2094,
      "ential": 2095,
      "Ġsay": 2096,
      "Ġsession": 2097,
      "Ġboundary": 2098,
      "ĠSix": 2099,
      "Ġinvestig": 2100,
      "ĠArt": 2101,
      "ĠPond": 2102,
      "mental": 2103,
      "icherry": 2104,
      "ĠHim": 2105,
      "Ġexceed": 2106,
      "ĠGa": 2107,
      "duc": 2108,
      "Ġ43": 2109,
      "ĠProtection": 2110,
      "Ġ53": 2111,
      "Ġ56": 2112,
      "Ġincome": 2113,
      "Ġimposition": 2114,
      "Ġ1959": 2115,
      "Ġ2006": 2116,
      "Ġstand": 2117,
      "ĠPowers": 2118,
      "posal": 2119,
      "Ġaddition": 2120,
      "Ġadditional": 2121,
      "Ġofficer": 2122,
      "2015": 2123,
      "Ġvacant": 2124,
      "Ġdeclare": 2125,
      "Ġdissolved": 2126,
      "ĠFifty": 2127,
      "Ġreligion": 2128,
      "Ġposs": 2129,
      "Ġliab": 2130,
      "ĠMathabanga": 2131,
      "Ġconcer": 2132,
      "Ġrelevant": 2133,
      "after": 2134,
      "Ġsatisfied": 2135,
      "ĠCapital": 2136,
      "ĠPondicherry": 2137,
      "ĠHimachal": 2138,
      "Notwithstanding": 2139,
      "TAT": 2140,
      "Temporary": 2141,
      "VIS": 2142,
      "five": 2143,
      "ien": 2144,
      "ke": 2145,
      "lies": 2146,
      "lished": 2147,
      "tim": 2148,
      "inal": 2149,
      "reat": 2150,
      "Ġsta": 2151,
      "ĠSal": 2152,
      "ĠSTAT": 2153,
      "Ġtoge": 2154,
      "icable": 2155,
      "ank": 2156,
      "Ġdiv": 2157,
      "Ġsum": 2158,
      "ĠIV": 2159,
      "Ġnear": 2160,
      "ĠHill": 2161,
      "egu": 2162,
      "ĠMan": 2163,
      "uration": 2164,
      "ĠRul": 2165,
      "Ġmeet": 2166,
      "Ġ1970": 2167,
      "Ġ1977": 2168,
      "Ġarising": 2169,
      "Ġ52": 2170,
      "lled": 2171,
      "ĠGovernors": 2172,
      "unachal": 2173,
      "venty": 2174,
      "ĠSee": 2175,
      "Ġleave": 2176,
      "Ġauthorise": 2177,
      "Ġauthorities": 2178,
      "Ġ1988": 2179,
      "oci": 2180,
      "ocate": 2181,
      "ĠContracts": 2182,
      "ĠThird": 2183,
      "2004": 2184,
      "Ġapplicable": 2185,
      "Ġinstitution": 2186,
      "Ġfaith": 2187,
      "ĠAny": 2188,
      "ĠEighth": 2189,
      "Ġestablished": 2190,
      "Ġgrounds": 2191,
      "Ġfilled": 2192,
      "Ġprotection": 2193,
      "Ġemployment": 2194,
      "Ġrestric": 2195,
      "Ġrelates": 2196,
      "Ġcollected": 2197,
      "Ġcarry": 2198,
      "ĠArticle": 2199,
      "tenance": 2200,
      "Ġexcluding": 2201,
      "ĠPROVIS": 2202,
      "Ġbasis": 2203,
      "Ġelectoral": 2204,
      "TIVE": 2205,
      "Ġtogether": 2206,
      "ĠPROVISIONS": 2207,
      "00": 2208,
      "51": 2209,
      "jud": 2210,
      "zet": 2211,
      "Ġopp": 2212,
      "tiv": 2213,
      "erated": 2214,
      "Ġsome": 2215,
      "atak": 2216,
      "ĠSur": 2217,
      "Ġcre": 2218,
      "Ġmar": 2219,
      "Ġorig": 2220,
      "ourt": 2221,
      "lem": 2222,
      "ĠTu": 2223,
      "ĠĠĠĠĠ": 2224,
      "cement": 2225,
      "Ġpropor": 2226,
      "urity": 2227,
      "dust": 2228,
      "ĠBans": 2229,
      "ĠRes": 2230,
      "ulg": 2231,
      "Ġoffices": 2232,
      "issions": 2233,
      "Ġthereon": 2234,
      "Ġconsent": 2235,
      "Ġ74": 2236,
      "Ġ79": 2237,
      "Ġimport": 2238,
      "Ġsections": 2239,
      "Ġinterests": 2240,
      "Ġassigned": 2241,
      "ĠServices": 2242,
      "Ġofficial": 2243,
      "2000": 2244,
      "Ġremoved": 2245,
      "ĠArunachal": 2246,
      "Ġadvice": 2247,
      "ĠHundredth": 2248,
      "Ġeducationally": 2249,
      "Ġforeign": 2250,
      "Ġproviding": 2251,
      "Ġ................................................................": 2252,
      "Ġwaterways": 2253,
      "Ġpromulg": 2254,
      "Ġimpose": 2255,
      "Ġresignation": 2256,
      "Ġqualified": 2257,
      "ĠOrdinance": 2258,
      "ĠSuits": 2259,
      "Ġmaintenance": 2260,
      "riminal": 2261,
      "ĠWhere": 2262,
      "Ġvalidity": 2263,
      "Ġreceipt": 2264,
      "Ġsafegu": 2265,
      "Ġresponsib": 2266,
      "ĠGazet": 2267,
      "ĠSalaries": 2268,
      "Ġnearly": 2269,
      "Ġproportion": 2270,
      "ĠGazette": 2271,
      "EC": 2272,
      "amental": 2273,
      "el": 2274,
      "itions": 2275,
      "kata": 2276,
      "mor": 2277,
      "to": 2278,
      "Ġocc": 2279,
      "Ġaid": 2280,
      "ind": 2281,
      "enal": 2282,
      "ortu": 2283,
      "Ġple": 2284,
      "Ġind": 2285,
      "Ġindust": 2286,
      "Ġcourse": 2287,
      "ĠCl": 2288,
      "Ġwar": 2289,
      "Ġwri": 2290,
      "rove": 2291,
      "Ġreports": 2292,
      "Ġsur": 2293,
      "Ġthrough": 2294,
      "Ġear": 2295,
      "idence": 2296,
      "Ġpromotion": 2297,
      "rial": 2298,
      "Ġexist": 2299,
      "ĠMys": 2300,
      "ĠRE": 2301,
      "Ġ46": 2302,
      "Ġ1979": 2303,
      "Ġ51": 2304,
      "Ġgive": 2305,
      "Ġ117": 2306,
      "Ġconse": 2307,
      "Ġacqu": 2308,
      "Ġ61": 2309,
      "tained": 2310,
      "ĠInter": 2311,
      "Ġset": 2312,
      "ĠDefin": 2313,
      "Ġ131": 2314,
      "Ġsecond": 2315,
      "Ġsecurity": 2316,
      "Ġpreced": 2317,
      "ĠFunds": 2318,
      "ĠinterState": 2319,
      "Ġ212": 2320,
      "Ġ186": 2321,
      "Ġtwenty": 2322,
      "Ġmanagement": 2323,
      "Ġgovern": 2324,
      "ĠProvision": 2325,
      "Ġaddress": 2326,
      "Ġneed": 2327,
      "Ġestim": 2328,
      "Ġcharge": 2329,
      "Ġappe": 2330,
      "Ġcommunication": 2331,
      "Ġdefin": 2332,
      "ĠCommittees": 2333,
      "ĠXVI": 2334,
      "Ġvoid": 2335,
      "ĠBodo": 2336,
      "Ġoblig": 2337,
      "urrent": 2338,
      "Ġestablishment": 2339,
      "Ġknown": 2340,
      "ĠLaws": 2341,
      "ĠHindi": 2342,
      "Ġthinks": 2343,
      "kets": 2344,
      "Ġopportu": 2345,
      "Ġwriting": 2346,
      "ĠMysore": 2347,
      "Ġopportun": 2348,
      "Finance": 2349,
      "IN": 2350,
      "ating": 2351,
      "ires": 2352,
      "mon": 2353,
      "natak": 2354,
      "ption": 2355,
      "sses": 2356,
      "zir": 2357,
      "retion": 2358,
      "Ġpun": 2359,
      "itment": 2360,
      "onsist": 2361,
      "Ġdown": 2362,
      "Ġequ": 2363,
      "iding": 2364,
      "ĠActs": 2365,
      "Ġnon": 2366,
      "vey": 2367,
      "Ġwhom": 2368,
      "ĠGoods": 2369,
      "ĠDu": 2370,
      "quential": 2371,
      "essions": 2372,
      "posed": 2373,
      "Ġ112": 2374,
      "Ġthereto": 2375,
      "Ġ67": 2376,
      "Ġlong": 2377,
      "Ġlik": 2378,
      "Ġ246": 2379,
      "ĠSeventy": 2380,
      "Ġleast": 2381,
      "Ġ1989": 2382,
      "Ġ137": 2383,
      "Ġdecree": 2384,
      "rust": 2385,
      "ruitment": 2386,
      "Ġenum": 2387,
      "Ġ152": 2388,
      "ĠTribunal": 2389,
      "Ġintern": 2390,
      "Ġenters": 2391,
      "Ġjudge": 2392,
      "Ġapproval": 2393,
      "Ġquestions": 2394,
      "Ġcontinuance": 2395,
      "loInd": 2396,
      "ĠNazir": 2397,
      "Ġdiscretion": 2398,
      "ĠEntry": 2399,
      "ogn": 2400,
      "Ġpresented": 2401,
      "ĠXIV": 2402,
      "Ġremain": 2403,
      "Ġimprove": 2404,
      "ĠChairperson": 2405,
      "Ġsuspend": 2406,
      "Ġrevok": 2407,
      "hibition": 2408,
      "ĠAngloInd": 2409,
      "Ġnature": 2410,
      "ĠClasses": 2411,
      "Ġregulate": 2412,
      "ĠRestric": 2413,
      "ganja": 2414,
      "Ġsocially": 2415,
      "eighth": 2416,
      "Ġconcerned": 2417,
      "ĠBanskata": 2418,
      "Ġconsequential": 2419,
      "Ġappear": 2420,
      "Ġdefined": 2421,
      "nataka": 2422,
      "Ġlike": 2423,
      "Ġenumerated": 2424,
      "ĠNazirganja": 2425,
      "ĠAngloIndian": 2426,
      "CE": 2427,
      "IG": 2428,
      "ION": 2429,
      "RA": 2430,
      "TH": 2431,
      "gress": 2432,
      "hanga": 2433,
      "iting": 2434,
      "molu": 2435,
      "tak": 2436,
      "va": 2437,
      "wing": 2438,
      "Ġaud": 2439,
      "Ġsp": 2440,
      "als": 2441,
      "alth": 2442,
      "Ġpe": 2443,
      "ederal": 2444,
      "Ġinfor": 2445,
      "Ġcer": 2446,
      "Ġcred": 2447,
      "aril": 2448,
      "itable": 2449,
      "Ġrevenue": 2450,
      "self": 2451,
      "Ġsucc": 2452,
      "Ġeligible": 2453,
      "chase": 2454,
      "Ġshould": 2455,
      "ilway": 2456,
      "Ġnor": 2457,
      "ĠMin": 2458,
      "ural": 2459,
      "ĠFederal": 2460,
      "ĠBoundaries": 2461,
      "Ġ47": 2462,
      "Ġ50": 2463,
      "Ġ54": 2464,
      "Ġ58": 2465,
      "Ġ510": 2466,
      "ected": 2467,
      "Ġgu": 2468,
      "Ġcommon": 2469,
      "Ġacquisition": 2470,
      "undamental": 2471,
      "Ġlo": 2472,
      "1970": 2473,
      "Ġattend": 2474,
      "ources": 2475,
      "2019": 2476,
      "Ġ124": 2477,
      "Ġ1955": 2478,
      "Ġdeem": 2479,
      "Ġstru": 2480,
      "ĠĠĠĠĠĠĠĠĠĠĠĠĠĠĠĠĠĠĠĠĠĠĠĠĠĠĠĠĠĠĠĠĠĠĠĠĠĠĠĠĠĠĠĠĠĠĠĠĠĠĠĠĠĠĠĠĠĠĠĠĠĠĠĠĠĠĠĠĠĠĠĠĠĠĠĠĠĠĠĠ": 2481,
      "Ġrequires": 2482,
      "Ġ269": 2483,
      "venues": 2484,
      "Ġcomple": 2485,
      "Ġ370": 2486,
      "Ġsave": 2487,
      "Ġchild": 2488,
      "Ġdoes": 2489,
      "Ġminor": 2490,
      "Ġ2021987": 2491,
      "Ġcitizenship": 2492,
      "Ġdrawn": 2493,
      "ĠCode": 2494,
      "Ġannual": 2495,
      "Ġarises": 2496,
      "Ġplanning": 2497,
      "Ġletters": 2498,
      "Ġenforcement": 2499,
      "Ġmessage": 2500,
      "Ġpassing": 2501,
      "Ġexercisable": 2502,
      "Ġpreceding": 2503,
      "Ġpunish": 2504,
      "arily": 2505,
      "Ġ5101963": 2506,
      "MENT": 2507,
      "Sub": 2508,
      "from": 2509,
      "first": 2510,
      "hab": 2511,
      "ring": 2512,
      "sion": 2513,
      "suance": 2514,
      "uments": 2515,
      "Ġtill": 2516,
      "Ġair": 2517,
      "enses": 2518,
      "Ġpens": 2519,
      "Ġfix": 2520,
      "Ġfores": 2521,
      "Ġfourt": 2522,
      "leg": 2523,
      "seventh": 2524,
      "ĠIN": 2525,
      "ĠIt": 2526,
      "Ġ193": 2527,
      "omes": 2528,
      "asald": 2529,
      "Ġproposed": 2530,
      "ressed": 2531,
      "egr": 2532,
      "ĠMasald": 2533,
      "ĠGeneral": 2534,
      "Ġresources": 2535,
      "iganj": 2536,
      "ĠBar": 2537,
      "ĠRec": 2538,
      "Ġ40": 2539,
      "Ġ49": 2540,
      "Ġmeas": 2541,
      "andum": 2542,
      "Ġsubst": 2543,
      "ference": 2544,
      "utes": 2545,
      "Ġtherefrom": 2546,
      "Ġcap": 2547,
      "Ġ63": 2548,
      "Ġ64": 2549,
      "Ġ65": 2550,
      "Ġ69": 2551,
      "Ġexped": 2552,
      "Ġpurchase": 2553,
      "Ġpursuance": 2554,
      "ivers": 2555,
      "Ġdisposal": 2556,
      "Ġregist": 2557,
      "Ġregional": 2558,
      "ĠCommissioner": 2559,
      "Ġserving": 2560,
      "Ġsepar": 2561,
      "Ġlegal": 2562,
      "Ġ1980": 2563,
      "Ġ127": 2564,
      "Ġ121977": 2565,
      "ensang": 2566,
      "Ġinser": 2567,
      "Ġ2018": 2568,
      "Ġintegr": 2569,
      "Ġonethird": 2570,
      "Ġexpiry": 2571,
      "Ġholds": 2572,
      "Ġadministrator": 2573,
      "Ġapproving": 2574,
      "Ġtraining": 2575,
      "Ġ368": 2576,
      "ĠTerritorial": 2577,
      "1985": 2578,
      "Ġreasons": 2579,
      "Ġrailway": 2580,
      "Ġexclus": 2581,
      "Ġconnected": 2582,
      "Ġappeals": 2583,
      "Ġ1948": 2584,
      "ĠAdministrative": 2585,
      "ĠAppointments": 2586,
      "Ġprofit": 2587,
      "Ġinquir": 2588,
      "Ġdistribution": 2589,
      "Ġcommittees": 2590,
      "ĠDisqual": 2591,
      "Ġfunctioning": 2592,
      "Ġsentence": 2593,
      "Ġreadjust": 2594,
      "Ġliabilities": 2595,
      "ĠReservation": 2596,
      "Ġimportance": 2597,
      "Ġsafeguards": 2598,
      "morandum": 2599,
      "ĠBodoland": 2600,
      "Subject": 2601,
      "Ġpensions": 2602,
      "Ġfourteen": 2603,
      "ĠMasaldanga": 2604,
      "26": 2605,
      "For": 2606,
      "GEN": 2607,
      "NION": 2608,
      "ela": 2609,
      "lar": 2610,
      "mission": 2611,
      "ps": 2612,
      "pol": 2613,
      "side": 2614,
      "Ġve": 2615,
      "Ġown": 2616,
      "erve": 2617,
      "enting": 2618,
      "orpor": 2619,
      "Ġ119": 2620,
      "Ġcop": 2621,
      "ĠAutonomous": 2622,
      "arch": 2623,
      "Ġwr": 2624,
      "Ġorganisation": 2625,
      "Ġrevenues": 2626,
      "Ġdoc": 2627,
      "Ġsuits": 2628,
      "Ġemolu": 2629,
      "Ġforms": 2630,
      "idual": 2631,
      "rig": 2632,
      "ĠHary": 2633,
      "nglish": 2634,
      "ĠĠĠĠĠĠĠĠĠĠ": 2635,
      "Ġwhol": 2636,
      "Ġmean": 2637,
      "ĠUNION": 2638,
      "Ġsubmitted": 2639,
      "Ġsubordin": 2640,
      "ĠEnglish": 2641,
      "Ġoffences": 2642,
      "ffic": 2643,
      "Ġhealth": 2644,
      "Ġalloc": 2645,
      "Ġconsum": 2646,
      "Ġ66": 2647,
      "Ġiv": 2648,
      "ĠRevenue": 2649,
      "Ġjustice": 2650,
      "ividual": 2651,
      "1971": 2652,
      "Ġregions": 2653,
      "ĠAssemblies": 2654,
      "Ġservants": 2655,
      "Ġrecords": 2656,
      "Ġrecogn": 2657,
      "Ġoutside": 2658,
      "Ġfurn": 2659,
      "Ġsixty": 2660,
      "Ġ1992": 2661,
      "1960": 2662,
      "Ġdiscus": 2663,
      "Ġsupplement": 2664,
      "ĠXVIII": 2665,
      "Ġrepealed": 2666,
      "Ġpractice": 2667,
      "Ġlegislation": 2668,
      "Ġallotted": 2669,
      "ĠKarnataka": 2670,
      "Ġintroduced": 2671,
      "Ġwithdraw": 2672,
      "Ġadaptations": 2673,
      "Ġstaff": 2674,
      "ĠTuensang": 2675,
      "Ġindividual": 2676,
      "Ġthroughout": 2677,
      "Ġmeasures": 2678,
      "Ġexpedient": 2679,
      "Ġseparate": 2680,
      "ĠHaryana": 2681,
      "Ġsubordinate": 2682,
      "Ch": 2683,
      "EA": 2684,
      "Every": 2685,
      "Fundamental": 2686,
      "No": 2687,
      "UA": 2688,
      "av": 2689,
      "acted": 2690,
      "ban": 2691,
      "eth": 2692,
      "nly": 2693,
      "rban": 2694,
      "tieth": 2695,
      "Ġsc": 2696,
      "orum": 2697,
      "Ġinv": 2698,
      "Ġinval": 2699,
      "ĠAtt": 2700,
      "ĠAIR": 2701,
      "aran": 2702,
      "itan": 2703,
      "Ġmy": 2704,
      "Ġanim": 2705,
      "sets": 2706,
      "ĠTenth": 2707,
      "ĠĠĠĠĠĠĠ": 2708,
      "Ġassets": 2709,
      "Ġlast": 2710,
      "vered": 2711,
      "ote": 2712,
      "ĠMay": 2713,
      "ĠFreedom": 2714,
      "1951": 2715,
      "ĠOath": 2716,
      "Ġundertak": 2717,
      "Ġ48": 2718,
      "tingency": 2719,
      "Ġ59": 2720,
      "Ġdeli": 2721,
      "Ġsolem": 2722,
      "Ġvary": 2723,
      "Ġ60": 2724,
      "Ġinconsist": 2725,
      "Ġexpenses": 2726,
      "ĠGovernments": 2727,
      "ĠVs": 2728,
      "Ġelect": 2729,
      "teen": 2730,
      "Ġ241970": 2731,
      "Ġauthorised": 2732,
      "ĠForm": 2733,
      "Ġ1981": 2734,
      "Ġrecruitment": 2735,
      "Ġ126": 2736,
      "Ġ162": 2737,
      "Ġprepar": 2738,
      "Ġquorum": 2739,
      "Ġ108": 2740,
      "tific": 2741,
      "Ġconstitute": 2742,
      "tropol": 2743,
      "ĠMetropol": 2744,
      "Ġgroup": 2745,
      "Ġcorpor": 2746,
      "Ġappropriation": 2747,
      "lier": 2748,
      "Ġdispute": 2749,
      "Ġdisputes": 2750,
      "Ġtribunals": 2751,
      "Ġjointly": 2752,
      "ĠChairpersons": 2753,
      "Ġcontext": 2754,
      "Ġreturn": 2755,
      "Ġsubsequently": 2756,
      "fully": 2757,
      "ĠSixty": 2758,
      "ĠSTATES": 2759,
      "ĠHills": 2760,
      "ĠManip": 2761,
      "ĠRuler": 2762,
      "Ġcarrying": 2763,
      "Ġearlier": 2764,
      "ĠInterpretation": 2765,
      "Ġ1861951": 2766,
      "Ġobligations": 2767,
      "ĠDuties": 2768,
      "Ġinformation": 2769,
      "Ġsubstan": 2770,
      "Ġintegrity": 2771,
      "Ġcopy": 2772,
      "Ġconsumption": 2773,
      "Ġdiscussion": 2774,
      "Ġinvalid": 2775,
      "Ġsolemnly": 2776,
      "ĠMetropolitan": 2777,
      "21": 2778,
      "ANG": 2779,
      "Special": 2780,
      "be": 2781,
      "current": 2782,
      "fic": 2783,
      "fif": 2784,
      "io": 2785,
      "mary": 2786,
      "ren": 2787,
      "wear": 2788,
      "Ġ0": 2789,
      "Ġroll": 2790,
      "hever": 2791,
      "Ġswear": 2792,
      "ors": 2793,
      "orne": 2794,
      "Ġpeople": 2795,
      "Ġpenal": 2796,
      "Ġcand": 2797,
      "Ġcriminal": 2798,
      "aried": 2799,
      "Ġmig": 2800,
      "Ġmunicipal": 2801,
      "icy": 2802,
      "Ġduration": 2803,
      "ĠTO": 2804,
      "tue": 2805,
      "ĠHa": 2806,
      "irtue": 2807,
      "ĠĠĠĠĠĠĠĠĠĠĠ": 2808,
      "imum": 2809,
      "ĠGod": 2810,
      "Ġmemorandum": 2811,
      "agar": 2812,
      "Ġclaim": 2813,
      "Ġwhichever": 2814,
      "Ġvide": 2815,
      "Ġvaried": 2816,
      "Ġvirtue": 2817,
      "ĠJoint": 2818,
      "Ġ113": 2819,
      "Ġhere": 2820,
      "ĠCommissions": 2821,
      "ĠRelating": 2822,
      "ancies": 2823,
      "1975": 2824,
      "ĠVIII": 2825,
      "iew": 2826,
      "Ġ244": 2827,
      "Ġ1982": 2828,
      "Ġ129": 2829,
      "Ġcount": 2830,
      "ĠJudicial": 2831,
      "ocol": 2832,
      "Ġsecure": 2833,
      "Ġpreven": 2834,
      "Ġprejud": 2835,
      "Ġduly": 2836,
      "Ġenact": 2837,
      "Ġalong": 2838,
      "Ġpreside": 2839,
      "Ġ188": 2840,
      "Ġexercised": 2841,
      "quality": 2842,
      "Ġ226": 2843,
      "Ġaddressed": 2844,
      "2003": 2845,
      "Ġtwothird": 2846,
      "Ġacts": 2847,
      "Ġnet": 2848,
      "Ġvacancies": 2849,
      "Ġ251": 2850,
      "Ġfollowed": 2851,
      "mption": 2852,
      "eavour": 2853,
      "Ġmodification": 2854,
      "Ġfavour": 2855,
      "Ġprescribe": 2856,
      "ĠNagar": 2857,
      "Ġprotocol": 2858,
      "ĠProvinces": 2859,
      "ĠFifth": 2860,
      "Ġaffirm": 2861,
      "Ġliable": 2862,
      "ĠMathabhanga": 2863,
      "ĠOffic": 2864,
      "Ġendeavour": 2865,
      "Ġarisen": 2866,
      "Ġaccordingly": 2867,
      "Ġcustom": 2868,
      "Ġcustody": 2869,
      "Ġceased": 2870,
      "Ġlimits": 2871,
      "Ġexceeding": 2872,
      "ociation": 2873,
      "Ġrestrictions": 2874,
      "Ġpleas": 2875,
      "IGH": 2876,
      "Ġloans": 2877,
      "Ġfixed": 2878,
      "iversity": 2879,
      "Ġemoluments": 2880,
      "Ġwholly": 2881,
      "Ġrecognised": 2882,
      "UAG": 2883,
      "Ġinconsistent": 2884,
      "ficul": 2885,
      "Ġcandid": 2886,
      "Ġtwothirds": 2887,
      "BL": 2888,
      "CY": 2889,
      "Par": 2890,
      "TS": 2891,
      "app": 2892,
      "band": 2893,
      "bari": 2894,
      "biganj": 2895,
      "ck": 2896,
      "eign": 2897,
      "gn": 2898,
      "hic": 2899,
      "lim": 2900,
      "och": 2901,
      "sh": 2902,
      "ug": 2903,
      "vy": 2904,
      "yGeneral": 2905,
      "Ġtable": 2906,
      "Ġoil": 2907,
      "Ġade": 2908,
      "Ġsim": 2909,
      "Ġbrac": 2910,
      "ala": 2911,
      "Ġpea": 2912,
      "Ġ120": 2913,
      "Ġcan": 2914,
      "ĠCOU": 2915,
      "arc": 2916,
      "Ġfund": 2917,
      "Ġreti": 2918,
      "Ġthous": 2919,
      "ĠIm": 2920,
      "vember": 2921,
      "Ġlakh": 2922,
      "vereign": 2923,
      "istr": 2924,
      "ĠOther": 2925,
      "ĠProhibition": 2926,
      "quate": 2927,
      "Ġdeath": 2928,
      "Ġparts": 2929,
      "Ġsovereign": 2930,
      "ĠEle": 2931,
      "Ġthereup": 2932,
      "Ġtherefor": 2933,
      "Ġactiv": 2934,
      "1978": 2935,
      "taining": 2936,
      "Ġ73": 2937,
      "ĠVac": 2938,
      "clause": 2939,
      "Ġauthorising": 2940,
      "ĠDebiganj": 2941,
      "Ġ83": 2942,
      "Ġ133": 2943,
      "ĠNovember": 2944,
      "Ġ123": 2945,
      "ocates": 2946,
      "acilities": 2947,
      "ĠKh": 2948,
      "Ġ99": 2949,
      "Ġenacted": 2950,
      "ricity": 2951,
      "ERGEN": 2952,
      "ĠConduct": 2953,
      "ĠContingency": 2954,
      "ĠConcurrent": 2955,
      "veli": 2956,
      "Ġ268": 2957,
      "ĠExtra": 2958,
      "Ġ305": 2959,
      "Ġsubclauses": 2960,
      "Ġdetermination": 2961,
      "Ġadministered": 2962,
      "Ġapproved": 2963,
      "posing": 2964,
      "Ġadded": 2965,
      "Ġcaste": 2966,
      "Ġ324": 2967,
      "Ġreceive": 2968,
      "ĠSecret": 2969,
      "ĠMizo": 2970,
      "Ġ1995": 2971,
      "Ġrace": 2972,
      "ĠXXX": 2973,
      "Ġadvance": 2974,
      "Ġadvise": 2975,
      "erger": 2976,
      "Ġprimary": 2977,
      "Ġtransferred": 2978,
      "ĠComposition": 2979,
      "Ġbecomes": 2980,
      "Ġ1949": 2981,
      "ĠAdministrator": 2982,
      "Ġmove": 2983,
      "Ġmoved": 2984,
      "Ġqualifications": 2985,
      "Ġcarri": 2986,
      "ĠArticles": 2987,
      "ĠIXA": 2988,
      "Ġfifteen": 2989,
      "Ġamongst": 2990,
      "change": 2991,
      "Ġ....................................................": 2992,
      "Ġpossible": 2993,
      "Ġsurvey": 2994,
      "Ġacquired": 2995,
      "Ġestimates": 2996,
      "Ġinternational": 2997,
      "Ġguaran": 2998,
      "Ġattendance": 2999,
      "Ġstruck": 3000,
      "Ġinquiry": 3001,
      "ĠDisqualifications": 3002,
      "Ġallocation": 3003,
      "Ġinvol": 3004,
      "ĠAttorne": 3005,
      "ĠManipur": 3006,
      "Ġsubstantial": 3007,
      "fifth": 3008,
      "hicles": 3009,
      "Ġadequate": 3010,
      "Ġpeace": 3011,
      "Ġthousand": 3012,
      "Ġsovereignty": 3013,
      "Ġthereupon": 3014,
      "ĠVacation": 3015,
      "ERGENCY": 3016,
      "Ġguarante": 3017,
      "ĠAttorneyGeneral": 3018,
      "24": 3019,
      "71": 3020,
      "END": 3021,
      "GIS": 3022,
      "PU": 3023,
      "TY": 3024,
      "bi": 3025,
      "bt": 3026,
      "bour": 3027,
      "ctive": 3028,
      "ience": 3029,
      "iance": 3030,
      "kuch": 3031,
      "mun": 3032,
      "nical": 3033,
      "ob": 3034,
      "pse": 3035,
      "rant": 3036,
      "uman": 3037,
      "yst": 3038,
      "yder": 3039,
      "yond": 3040,
      "Ġens": 3041,
      "inances": 3042,
      "intend": 3043,
      "ering": 3044,
      "att": 3045,
      "ortion": 3046,
      "orog": 3047,
      "ents": 3048,
      "ĠSa": 3049,
      "ĠSital": 3050,
      "Ġcent": 3051,
      "Ġcot": 3052,
      "ĠPre": 3053,
      "lain": 3054,
      "Ġbeyond": 3055,
      "Ġder": 3056,
      "Ġev": 3057,
      "Ġeff": 3058,
      "chnical": 3059,
      "Ġ190": 3060,
      "Ġ192": 3061,
      "ilar": 3062,
      "Ġproduction": 3063,
      "Ġhuman": 3064,
      "Ġuph": 3065,
      "ĠHyder": 3066,
      "Ġlabour": 3067,
      "irc": 3068,
      "iring": 3069,
      "olun": 3070,
      "TIONS": 3071,
      "ective": 3072,
      "tered": 3073,
      "ĠDad": 3074,
      "ĠDire": 3075,
      "Ġcont": 3076,
      "Ġcontract": 3077,
      "ĠUniversity": 3078,
      "lls": 3079,
      "Ġgen": 3080,
      "Ġoffence": 3081,
      "Ġvest": 3082,
      "Ġvolun": 3083,
      "Ġ114": 3084,
      "Ġ118": 3085,
      "Ġthereafter": 3086,
      "abad": 3087,
      "Ġli": 3088,
      "Ġlic": 3089,
      "Ġlie": 3090,
      "1973": 3091,
      "Ġimposing": 3092,
      "airpers": 3093,
      "Ġrates": 3094,
      "Ġ82": 3095,
      "Ġ121": 3096,
      "Ġ125": 3097,
      "erals": 3098,
      "Ġsecuring": 3099,
      "Ġ1610": 3100,
      "Ġcomposition": 3101,
      "Ġdeclar": 3102,
      "Ġ96": 3103,
      "Ġ97": 3104,
      "ĠFortythird": 3105,
      "Ġ1954": 3106,
      "Ġ141": 3107,
      "Ġ153": 3108,
      "Ġ159": 3109,
      "Ġ151960": 3110,
      "Ġ102": 3111,
      "Ġalleg": 3112,
      "ignment": 3113,
      "Ġentered": 3114,
      "Ġ231": 3115,
      "Ġ233": 3116,
      "ERN": 3117,
      "Ġ189": 3118,
      "ĠContin": 3119,
      "ĠAssociation": 3120,
      "Ġrecommended": 3121,
      "Ġappointments": 3122,
      "Ġcomplain": 3123,
      "Ġcasual": 3124,
      "Ġsitu": 3125,
      "2014": 3126,
      "2002": 3127,
      "ecutive": 3128,
      "riculture": 3129,
      "Ġtribes": 3130,
      "Ġ1990": 3131,
      "ĠViceCh": 3132,
      "Ġexcess": 3133,
      "Ġadvocate": 3134,
      "Ġfail": 3135,
      "Ġprorog": 3136,
      "Ġreasonable": 3137,
      "iii": 3138,
      "Ġdifficul": 3139,
      "ĠAdministration": 3140,
      "Ġabsent": 3141,
      "Ġpractic": 3142,
      "Ġperformance": 3143,
      "Ġbears": 3144,
      "Ġ1341978": 3145,
      "ĠOrdinances": 3146,
      "ordinary": 3147,
      "ĠOfficial": 3148,
      "ĠAdvocates": 3149,
      "Ġsuspension": 3150,
      "India": 3151,
      "OUS": 3152,
      "Ġdistributed": 3153,
      "Ġcommittee": 3154,
      "Ġinstrument": 3155,
      "ĠPrime": 3156,
      "ĠEstates": 3157,
      "Ġroad": 3158,
      "Ġsummon": 3159,
      "Ġoriginal": 3160,
      "Ġpromulgate": 3161,
      "Ġresponsibility": 3162,
      "Ġwarrant": 3163,
      "Ġ2122002": 3164,
      "Ġopportunity": 3165,
      "Ġlonger": 3166,
      "Ġimprovement": 3167,
      "ĠRestriction": 3168,
      "Ġregistered": 3169,
      "Ġexclusive": 3170,
      "Ġwrits": 3171,
      "Ġwithdrawal": 3172,
      "Ġelectricity": 3173,
      "ĠHaveli": 3174,
      "Ġprejudice": 3175,
      "Ġsimilar": 3176,
      "Ġbrackets": 3177,
      "ĠExtraordinary": 3178,
      "GISLA": 3179,
      "kuchi": 3180,
      "intendence": 3181,
      "ĠSitalkuchi": 3182,
      "Ġcott": 3183,
      "Ġeffective": 3184,
      "Ġuphold": 3185,
      "ĠHyderabad": 3186,
      "ĠDadra": 3187,
      "Ġvolunt": 3188,
      "airperson": 3189,
      "Ġallegiance": 3190,
      "ĠViceChairperson": 3191,
      "66": 3192,
      "AN": 3193,
      "EOUS": 3194,
      "IX": 3195,
      "LLA": 3196,
      "MIS": 3197,
      "NEOUS": 3198,
      "OV": 3199,
      "RE": 3200,
      "Rec": 3201,
      "course": 3202,
      "ex": 3203,
      "gar": 3204,
      "hold": 3205,
      "hile": 3206,
      "ila": 3207,
      "ira": 3208,
      "mes": 3209,
      "miss": 3210,
      "mpt": 3211,
      "ood": 3212,
      "uduc": 3213,
      "Ġest": 3214,
      "Ġtru": 3215,
      "Ġtreat": 3216,
      "Ġtrial": 3217,
      "hen": 3218,
      "Ġaer": 3219,
      "onment": 3220,
      "tition": 3221,
      "inaid": 3222,
      "erally": 3223,
      "read": 3224,
      "Ġspe": 3225,
      "Ġspeak": 3226,
      "Ġsyst": 3227,
      "Ġbor": 3228,
      "Ġbir": 3229,
      "isions": 3230,
      "isory": 3231,
      "esty": 3232,
      "ĠSection": 3233,
      "Ġtolls": 3234,
      "ĠCO": 3235,
      "ĠCond": 3236,
      "ĠAp": 3237,
      "ĠAug": 3238,
      "Ġfreedom": 3239,
      "Ġfacilities": 3240,
      "ĠPers": 3241,
      "ĠPak": 3242,
      "ĠPlan": 3243,
      "Ġbelow": 3244,
      "Ġrepu": 3245,
      "Ġanc": 3246,
      "Ġforth": 3247,
      "Ġforty": 3248,
      "ender": 3249,
      "Ġproper": 3250,
      "Ġhundred": 3251,
      "ĠLang": 3252,
      "Ġurban": 3253,
      "ĠHis": 3254,
      "Ġexam": 3255,
      "ife": 3256,
      "ĠMaj": 3257,
      "urance": 3258,
      "Ġresolu": 3259,
      "ĠFore": 3260,
      "ecting": 3261,
      "ĠBusiness": 3262,
      "ĠDhab": 3263,
      "ĠUntil": 3264,
      "Ġdebt": 3265,
      "essor": 3266,
      "ult": 3267,
      "Ġvi": 3268,
      "ĠJurisdiction": 3269,
      "IAL": 3270,
      "Ġ115": 3271,
      "Ġincre": 3272,
      "Ġexport": 3273,
      "Ġjute": 3274,
      "Ġline": 3275,
      "Ġlife": 3276,
      "Ġ1964": 3277,
      "1974": 3278,
      "ĠCommissioners": 3279,
      "ĠForces": 3280,
      "Ġ1985": 3281,
      "Ġ87": 3282,
      "Ġ132": 3283,
      "Ġ136": 3284,
      "Ġrecord": 3285,
      "Ġ122": 3286,
      "Ġsecret": 3287,
      "Ġprovisional": 3288,
      "Ġdue": 3289,
      "Ġ317": 3290,
      "Ġ3110": 3291,
      "Ġeng": 3292,
      "Ġtaxation": 3293,
      "Ġ1952": 3294,
      "Ġ143": 3295,
      "ĠTribal": 3296,
      "Ġ2001": 3297,
      "Ġintention": 3298,
      "Ġintermediate": 3299,
      "Ġsubparagraphs": 3300,
      "Ġ181979": 3301,
      "Ġconstituency": 3302,
      "Ġ264": 3303,
      "Ġ262014": 3304,
      "Ġassist": 3305,
      "Ġconsiders": 3306,
      "Ġ279": 3307,
      "Ġsits": 3308,
      "2006": 3309,
      "Ġabolition": 3310,
      "1988": 3311,
      "Ġ1991": 3312,
      "Ġexecuted": 3313,
      "Ġlanguages": 3314,
      "Ġsubscrib": 3315,
      "ĠXXV": 3316,
      "Ġpolicy": 3317,
      "Ġdisqualification": 3318,
      "Ġdisqualifications": 3319,
      "Ġcommunities": 3320,
      "ĠAudit": 3321,
      "Ġ712004": 3322,
      "Ġwaters": 3323,
      "Ġprotect": 3324,
      "ĠFifteenth": 3325,
      "ĠXIX": 3326,
      "Ġconstitutional": 3327,
      "Ġpublication": 3328,
      "Ġremun": 3329,
      "ĠThirtysixth": 3330,
      "Ġgrantsinaid": 3331,
      "Ġtext": 3332,
      "Ġtechnical": 3333,
      "ĠAdvocate": 3334,
      "ĠAdvisory": 3335,
      "EMERGENCY": 3336,
      "Ġannu": 3337,
      "atives": 3338,
      "Ġdesira": 3339,
      "Ġxxx": 3340,
      "Ġletter": 3341,
      "Ġfifty": 3342,
      "Ġceases": 3343,
      "Ġallotment": 3344,
      "Ġwithdrawn": 3345,
      "ITOR": 3346,
      "Ġreturned": 3347,
      "Ġcreation": 3348,
      "Ġoccurr": 3349,
      "ĠRELA": 3350,
      "ĠDefinition": 3351,
      "Ġneeds": 3352,
      "CELLA": 3353,
      "Ġchildren": 3354,
      "Ġforest": 3355,
      "Ġreadjustment": 3356,
      "Ġvehicles": 3357,
      "Ġdocuments": 3358,
      "Ġundertaken": 3359,
      "Ġpreparation": 3360,
      "Ġmigr": 3361,
      "Ġpleasure": 3362,
      "UAGE": 3363,
      "limitation": 3364,
      "ĠCOURT": 3365,
      "Ġactivities": 3366,
      "Ġadvancement": 3367,
      "Ġcarried": 3368,
      "Ġsurveyed": 3369,
      "munities": 3370,
      "attle": 3371,
      "Ġliqu": 3372,
      "Ġ16102015": 3373,
      "ĠContinuance": 3374,
      "Record": 3375,
      "uducherry": 3376,
      "Ġtrue": 3377,
      "ĠConditions": 3378,
      "ĠAugust": 3379,
      "ĠPlanning": 3380,
      "Ġrepugn": 3381,
      "Ġforthwith": 3382,
      "ĠLangu": 3383,
      "ĠMajesty": 3384,
      "Ġresolutions": 3385,
      "ĠForeign": 3386,
      "Ġ31102019": 3387,
      "ĠAdvocateGeneral": 3388,
      "CELLANEOUS": 3389,
      "44": 3390,
      "AA": 3391,
      "AR": 3392,
      "Ex": 3393,
      "Serv": 3394,
      "TRA": 3395,
      "WE": 3396,
      "co": 3397,
      "emption": 3398,
      "fact": 3399,
      "ior": 3400,
      "pa": 3401,
      "pur": 3402,
      "pte": 3403,
      "plus": 3404,
      "rid": 3405,
      "tension": 3406,
      "ufact": 3407,
      "Ġir": 3408,
      "Ġtit": 3409,
      "eration": 3410,
      "Ġsche": 3411,
      "Ġsanc": 3412,
      "Ġsigned": 3413,
      "alc": 3414,
      "alent": 3415,
      "ĠSP": 3416,
      "ĠSU": 3417,
      "Ġcirc": 3418,
      "ĠConstitu": 3419,
      "ĠAP": 3420,
      "aring": 3421,
      "ite": 3422,
      "Ġfree": 3423,
      "Ġmen": 3424,
      "ĠPr": 3425,
      "ĠPol": 3426,
      "laining": 3427,
      "rowing": 3428,
      "Ġ220": 3429,
      "ically": 3430,
      "onsid": 3431,
      "Ġsuper": 3432,
      "ĠTra": 3433,
      "ĠTela": 3434,
      "Ġforces": 3435,
      "ĠInc": 3436,
      "cep": 3437,
      "ended": 3438,
      "Ġhigh": 3439,
      "Ġlapse": 3440,
      "istan": 3441,
      "ĠGar": 3442,
      "urred": 3443,
      "ngana": 3444,
      "sts": 3445,
      "stances": 3446,
      "ĠBE": 3447,
      "ĠBe": 3448,
      "ĠRules": 3449,
      "owled": 3450,
      "ĠNow": 3451,
      "tingu": 3452,
      "Ġarres": 3453,
      "Ġ204": 3454,
      "Ġdetained": 3455,
      "Ġdelimitation": 3456,
      "odrom": 3457,
      "ector": 3458,
      "ĠEX": 3459,
      "Ġvoc": 3460,
      "aker": 3461,
      "ĠSubclause": 3462,
      "Ġaccept": 3463,
      "Ġaccep": 3464,
      "Ġincurred": 3465,
      "Ġexplaining": 3466,
      "ablish": 3467,
      "ability": 3468,
      "Ġnotice": 3469,
      "ivalent": 3470,
      "Ġdischar": 3471,
      "Ġdisapp": 3472,
      "Ġ72": 3473,
      "Ġ75": 3474,
      "Ġ78": 3475,
      "ield": 3476,
      "ĠSeats": 3477,
      "ĠSepte": 3478,
      "ĠDev": 3479,
      "Ġ80": 3480,
      "Ġ84": 3481,
      "Ġ135": 3482,
      "Ġreconsid": 3483,
      "Ġaccru": 3484,
      "puting": 3485,
      "Ġaggress": 3486,
      "Ġagriculture": 3487,
      "Ġ164": 3488,
      "Ġcomputing": 3489,
      "acity": 3490,
      "Ġenv": 3491,
      "ĠWards": 3492,
      "Ġ148": 3493,
      "Ġ155": 3494,
      "Ġ109": 3495,
      "Ġalteration": 3496,
      "Ġriver": 3497,
      "Ġinterpretation": 3498,
      "Ġintercourse": 3499,
      "Ġwhose": 3500,
      "Ġ217": 3501,
      "Ġ232": 3502,
      "Ġ236": 3503,
      "ĠControl": 3504,
      "ĠĠĠĠĠĠĠĠĠĠĠĠĠĠĠĠĠĠĠĠĠĠĠĠĠĠĠĠĠĠĠĠĠĠĠĠĠĠĠĠĠĠĠĠĠĠĠĠĠĠĠĠĠĠĠĠĠĠĠĠĠĠĠĠ": 3505,
      "umstances": 3506,
      "ĠExemption": 3507,
      "Ġ301": 3508,
      "Ġcompan": 3509,
      "Ġ342": 3510,
      "Ġtransmitted": 3511,
      "Ġofficio": 3512,
      "Ġ323": 3513,
      "Ġ329": 3514,
      "Ġconferring": 3515,
      "Ġconsidered": 3516,
      "Ġamending": 3517,
      "Ġcontaining": 3518,
      "Ġcharges": 3519,
      "Ġdiscrimin": 3520,
      "Ġweaker": 3521,
      "ĠXVII": 3522,
      "Ġcls": 3523,
      "Ġextends": 3524,
      "Ġassented": 3525,
      "Ġvalue": 3526,
      "Ġprofessions": 3527,
      "Ġsooner": 3528,
      "Ġmeetings": 3529,
      "Ġpromote": 3530,
      "Ġimplement": 3531,
      "Ġchoose": 3532,
      "Ġ1342015": 3533,
      "Ġrequirements": 3534,
      "112000": 3535,
      "Ġinquire": 3536,
      "Ġreview": 3537,
      "ĠWhen": 3538,
      "ĠEightyfourth": 3539,
      "Ġcontempt": 3540,
      "ĠEstablish": 3541,
      "Ġ........................................................": 3542,
      "Ġinvestigate": 3543,
      "Ġfaithfully": 3544,
      "000": 3545,
      "Ġorigin": 3546,
      "Ġpromulgated": 3547,
      "Ġresponsibilities": 3548,
      "ĠDefinitions": 3549,
      "Ġequivalent": 3550,
      "Ġminorities": 3551,
      "Ġpunishment": 3552,
      "Ġinsert": 3553,
      "orporation": 3554,
      "Ġmeaning": 3555,
      "Ġfurnish": 3556,
      "Ġsupplemental": 3557,
      "Ġdelivered": 3558,
      "Ġvarying": 3559,
      "Ġpreventive": 3560,
      "ĠOfficers": 3561,
      "Ġ3051987": 3562,
      "Ġensure": 3563,
      "ĠSaving": 3564,
      "ĠPrevention": 3565,
      "Ġderog": 3566,
      "Ġevidence": 3567,
      "ĠAdvocateson": 3568,
      "GISLATIVE": 3569,
      "Ġtreaty": 3570,
      "Ġaerodrom": 3571,
      "Ġsystem": 3572,
      "ĠPersons": 3573,
      "ĠPakistan": 3574,
      "Explanation": 3575,
      "Services": 3576,
      "ridges": 3577,
      "ufacture": 3578,
      "Ġschemes": 3579,
      "Ġcircumstances": 3580,
      "Ġsuperintendence": 3581,
      "ĠTelangana": 3582,
      "Ġdisappro": 3583,
      "ĠSeptember": 3584,
      "Ġaggression": 3585,
      "It": 3586,
      "PER": 3587,
      "Puducherry": 3588,
      "Qual": 3589,
      "ST": 3590,
      "TWE": 3591,
      "Un": 3592,
      "by": 3593,
      "bit": 3594,
      "certain": 3595,
      "employ": 3596,
      "eks": 3597,
      "ft": 3598,
      "guri": 3599,
      "gistr": 3600,
      "hol": 3601,
      "lt": 3602,
      "not": 3603,
      "ness": 3604,
      "ool": 3605,
      "six": 3606,
      "Ġ.": 3607,
      "Ġil": 3608,
      "ĠQual": 3609,
      "Ġtre": 3610,
      "Ġava": 3611,
      "Ġoften": 3612,
      "tia": 3613,
      "ened": 3614,
      "Ġsan": 3615,
      "Ġste": 3616,
      "Ġbrough": 3617,
      "ale": 3618,
      "alid": 3619,
      "esting": 3620,
      "Ġpred": 3621,
      "Ġport": 3622,
      "ĠSoc": 3623,
      "Ġine": 3624,
      "Ġinf": 3625,
      "Ġtown": 3626,
      "Ġcattle": 3627,
      "ĠCro": 3628,
      "ĠCON": 3629,
      "ĠCach": 3630,
      "ĠCalc": 3631,
      "ĠAt": 3632,
      "Ġfour": 3633,
      "Ġmil": 3634,
      "Ġmul": 3635,
      "Ġword": 3636,
      "...": 3637,
      "Ġremit": 3638,
      "Ġreduction": 3639,
      "Ġ219": 3640,
      "Ġden": 3641,
      "legal": 3642,
      "Ġthings": 3643,
      "Ġthreat": 3644,
      "Ġformed": 3645,
      "Ġmagistr": 3646,
      "Ġascertain": 3647,
      "Ġprope": 3648,
      "Ġproduct": 3649,
      "Ġprohib": 3650,
      "Ġprogress": 3651,
      "ĠLE": 3652,
      "ĠLX": 3653,
      "ĠLy": 3654,
      "Ġextern": 3655,
      "ĠMar": 3656,
      "ĠGOV": 3657,
      "urb": 3658,
      "Ġresident": 3659,
      "Ġresidence": 3660,
      "TIES": 3661,
      "ĠĠĠĠĠĠĠĠĠĠĠĠ": 3662,
      "ĠDa": 3663,
      "ĠDec": 3664,
      "ĠDak": 3665,
      "ĠDuring": 3666,
      "ĠDuration": 3667,
      "ĠNal": 3668,
      "Ġmechan": 3669,
      "ĠIndust": 3670,
      "Ġconting": 3671,
      "Ġconven": 3672,
      "Ġ203": 3673,
      "Ġdep": 3674,
      "ferred": 3675,
      "ĠEn": 3676,
      "pose": 3677,
      "ĠJun": 3678,
      "Ġ116": 3679,
      "Ġcommute": 3680,
      "Ġhead": 3681,
      "ĠallIndia": 3682,
      "Ġconsignment": 3683,
      "Ġadop": 3684,
      "Ġ62": 3685,
      "Ġ68": 3686,
      "Ġlist": 3687,
      "Ġmakes": 3688,
      "iving": 3689,
      "Ġmater": 3690,
      "Ġdisad": 3691,
      "Ġdispose": 3692,
      "used": 3693,
      "Ġ76": 3694,
      "Ġperfor": 3695,
      "Ġsex": 3696,
      "Ġseal": 3697,
      "Ġ249": 3698,
      "Ġ85": 3699,
      "Ġ86": 3700,
      "Ġ88": 3701,
      "Ġ89": 3702,
      "Ġ139": 3703,
      "ported": 3704,
      "There": 3705,
      "ock": 3706,
      "accept": 3707,
      "Ġprevention": 3708,
      "Ġpreva": 3709,
      "Ġ92": 3710,
      "Ġ95": 3711,
      "Ġ98": 3712,
      "ĠFortyninth": 3713,
      "Ġencla": 3714,
      "Ġenable": 3715,
      "ĠWhile": 3716,
      "Ġ1953": 3717,
      "Ġ1957": 3718,
      "Ġ145": 3719,
      "Ġ141985": 3720,
      "Ġ158": 3721,
      "Ġalread": 3722,
      "tifies": 3723,
      "Ġinterference": 3724,
      "Ġentertain": 3725,
      "Ġentrust": 3726,
      "Ġ230": 3727,
      "Ġstri": 3728,
      "Ġjudges": 3729,
      "Ġ170": 3730,
      "Ġ171": 3731,
      "Ġmanufacture": 3732,
      "Ġ303": 3733,
      "Ġedge": 3734,
      "Ġcompens": 3735,
      "Ġ229": 3736,
      "ecessor": 3737,
      "Ġ348": 3738,
      "Ġadministrative": 3739,
      "Ġaffecting": 3740,
      "Ġhimself": 3741,
      "Ġ272": 3742,
      "Ġcosts": 3743,
      "Ġtrades": 3744,
      "Ġ363": 3745,
      "Ġgran": 3746,
      "ttlement": 3747,
      "Ġneither": 3748,
      "Ġ250": 3749,
      "Ġ332": 3750,
      "1986": 3751,
      "Ġdirectors": 3752,
      "Ġmoneyl": 3753,
      "1969": 3754,
      "Ġplaces": 3755,
      "Ġ350": 3756,
      "Ġlands": 3757,
      "Ġdisco": 3758,
      "Ġsittings": 3759,
      "Ġconsult": 3760,
      "Ġlevy": 3761,
      "Ġke": 3762,
      "atory": 3763,
      "Ġcollection": 3764,
      "Ġmineral": 3765,
      "Ġemployments": 3766,
      "ĠTenure": 3767,
      "Ġcallings": 3768,
      "Ġdemarc": 3769,
      "Ġpreviously": 3770,
      "ught": 3771,
      "1995": 3772,
      "Ġposting": 3773,
      "Ġrelate": 3774,
      "IRST": 3775,
      "ĠIXB": 3776,
      "Ġworking": 3777,
      "vantage": 3778,
      "Ġexclude": 3779,
      "Ġinstruction": 3780,
      "ĠNinetyninth": 3781,
      "ĠAnglong": 3782,
      "Ġnatural": 3783,
      "ĠKarbi": 3784,
      "Ġadaptation": 3785,
      "Ġ1102006": 3786,
      "Ġcouncils": 3787,
      "ĠSurplus": 3788,
      "Ġ792003": 3789,
      "Ġindustrial": 3790,
      "Ġtwentyfive": 3791,
      "Ġopportunities": 3792,
      "Ġnonaccept": 3793,
      "Ġrevoked": 3794,
      "Ġspent": 3795,
      "Ġcredit": 3796,
      "Ġsuccession": 3797,
      "Ġsuccessor": 3798,
      "Ġcompleted": 3799,
      "Ġ1935": 3800,
      "Ġanimal": 3801,
      "Ġcorporations": 3802,
      "Ġrolls": 3803,
      "Ġcountry": 3804,
      "Ġcandidate": 3805,
      "BLIC": 3806,
      "Parliament": 3807,
      "Ġcannot": 3808,
      "ĠElections": 3809,
      "ĠSecretary": 3810,
      "Ġpracticable": 3811,
      "Ġcotton": 3812,
      "MISCELLANEOUS": 3813,
      "ilable": 3814,
      "ĠCOM": 3815,
      "Ġsubscribe": 3816,
      "Ġannually": 3817,
      "Ġmigrated": 3818,
      "ĠLanguage": 3819,
      "ĠConstituent": 3820,
      "ĠAPP": 3821,
      "Ġreconsider": 3822,
      "ĠEstablishment": 3823,
      "ĠAdvocatesonRecord": 3824,
      "Ġillegal": 3825,
      "Ġavailable": 3826,
      "Ġbrought": 3827,
      "alidation": 3828,
      "Ġpredecessor": 3829,
      "ĠCrown": 3830,
      "ĠCachar": 3831,
      "Ġmulti": 3832,
      "Ġthreatened": 3833,
      "Ġascertained": 3834,
      "Ġpropelled": 3835,
      "Ġproducts": 3836,
      "Ġexternal": 3837,
      "ĠGOVERN": 3838,
      "ĠJune": 3839,
      "Ġdisadvantage": 3840,
      "Ġperformed": 3841,
      "Ġprevail": 3842,
      "Ġalready": 3843,
      "Ġnonacceptance": 3844,
      "31": 3845,
      "74": 3846,
      "81": 3847,
      "An": 3848,
      "DES": 3849,
      "ED": 3850,
      "OC": 3851,
      "PART": 3852,
      "RITOR": 3853,
      "THE": 3854,
      "atic": 3855,
      "aper": 3856,
      "eous": 3857,
      "ging": 3858,
      "hat": 3859,
      "iy": 3860,
      "iary": 3861,
      "libari": 3862,
      "rary": 3863,
      "sland": 3864,
      "sory": 3865,
      "trib": 3866,
      "uly": 3867,
      "uild": 3868,
      "vers": 3869,
      "wari": 3870,
      "wards": 3871,
      "ximum": 3872,
      "ĠZ": 3873,
      "Ġz": 3874,
      "Ġtrust": 3875,
      "Ġought": 3876,
      "tio": 3877,
      "inary": 3878,
      "ene": 3879,
      "enant": 3880,
      "Ġsing": 3881,
      "Ġsch": 3882,
      "Ġboundaries": 3883,
      "Ġbring": 3884,
      "Ġbuild": 3885,
      "atters": 3886,
      "alguri": 3887,
      "oration": 3888,
      "ĠSave": 3889,
      "Ġinde": 3890,
      "Ġinland": 3891,
      "Ġcultu": 3892,
      "ĠCivil": 3893,
      "ĠCriminal": 3894,
      "itary": 3895,
      "Ġfield": 3896,
      "Ġmed": 3897,
      "ĠPR": 3898,
      "ĠPan": 3899,
      "ĠPoch": 3900,
      "laves": 3901,
      "Ġorgan": 3902,
      "Ġrese": 3903,
      "Ġeval": 3904,
      "Ġemp": 3905,
      "Ġequality": 3906,
      "ĠTer": 3907,
      "ĠTER": 3908,
      "Ġformation": 3909,
      "Ġmaps": 3910,
      "Ġmaximum": 3911,
      "ĠIsland": 3912,
      "Ġassemb": 3913,
      "Ġ191": 3914,
      "Ġ356": 3915,
      "endered": 3916,
      "Ġproduced": 3917,
      "ĠLie": 3918,
      "iable": 3919,
      "olog": 3920,
      "ĠMarch": 3921,
      "ĠMatters": 3922,
      "dult": 3923,
      "Ġresiding": 3924,
      "Ġwithhold": 3925,
      "ĠFIRST": 3926,
      "economic": 3927,
      "ĠBo": 3928,
      "ĠBANG": 3929,
      "vernment": 3930,
      "nclaves": 3931,
      "Ġarmed": 3932,
      "Ġarbit": 3933,
      "Ġcond": 3934,
      "Ġcontro": 3935,
      "amp": 3936,
      "ĠPromotion": 3937,
      "Ġ205": 3938,
      "Ġ511": 3939,
      "Ġdeal": 3940,
      "Ġdepri": 3941,
      "ĠEnclaves": 3942,
      "ulbari": 3943,
      "ulsory": 3944,
      "Ġitself": 3945,
      "utenant": 3946,
      "ĠJuly": 3947,
      "illary": 3948,
      "tail": 3949,
      "ight": 3950,
      "Ġ112016": 3951,
      "Ġcommunic": 3952,
      "Ġhearing": 3953,
      "Ġcad": 3954,
      "Ġadmission": 3955,
      "Ġpurpor": 3956,
      "Ġ1965": 3957,
      "Ġdiseas": 3958,
      "Ġ70": 3959,
      "Ġ77": 3960,
      "Ġimmunities": 3961,
      "ĠValidation": 3962,
      "jects": 3963,
      "Ġself": 3964,
      "Ġrank": 3965,
      "Ġ241": 3966,
      "Ġ130": 3967,
      "Ġ131985": 3968,
      "Ġreconstitution": 3969,
      "part": 3970,
      "Ġ166": 3971,
      "Ġ1612": 3972,
      "ĠKal": 3973,
      "Ġdecisions": 3974,
      "Ġ90": 3975,
      "Ġ91": 3976,
      "Ġ93": 3977,
      "Ġ151": 3978,
      "Ġpartly": 3979,
      "Ġtaking": 3980,
      "Ġ100": 3981,
      "Ġ101": 3982,
      "Ġ106": 3983,
      "Ġ107": 3984,
      "Ġalco": 3985,
      "tification": 3986,
      "Ġ214": 3987,
      "Ġ235": 3988,
      "Ġstanding": 3989,
      "Ġrequiring": 3990,
      "ĠExtent": 3991,
      "Ġgood": 3992,
      "Ġcomply": 3993,
      "Ġ221": 3994,
      "Ġ224": 3995,
      "Ġcontinued": 3996,
      "Ġabol": 3997,
      "Ġ361": 3998,
      "Ġactual": 3999,
      "Ġvacate": 4000,
      "Ġfinanced": 4001,
      "Ġ257": 4002,
      "Ġ259": 4003,
      "Ġ331": 4004,
      "Ġ338": 4005,
      "Ġ1996": 4006,
      "priet": 4007,
      "Ġraised": 4008,
      "Ġraising": 4009,
      "Ġratio": 4010,
      "ĠAnn": 4011,
      "Ġweeks": 4012,
      "Ġrepresenting": 4013,
      "Ġdefine": 4014,
      "LANG": 4015,
      "LADES": 4016,
      "Ġagreements": 4017,
      "Ġleviable": 4018,
      "Ġparticip": 4019,
      "Ġrepresentatives": 4020,
      "Ġappropriated": 4021,
      "government": 4022,
      "Ġregarding": 4023,
      "ĠChhat": 4024,
      "Ġrestri": 4025,
      "1993": 4026,
      "Ġposition": 4027,
      "Ġrelief": 4028,
      "Ġimposes": 4029,
      "Ġimposed": 4030,
      "ĠThirtyeighth": 4031,
      "Ġnewsp": 4032,
      "Ġdrawing": 4033,
      "Ġworkers": 4034,
      "Ġdesign": 4035,
      "Ġknowled": 4036,
      "Ġintroduction": 4037,
      "uchlibari": 4038,
      "Ġregulated": 4039,
      "ĠSixteenth": 4040,
      "ientific": 4041,
      "ĠSTATE": 4042,
      "Ġdivided": 4043,
      "ĠRulers": 4044,
      "inding": 4045,
      "Ġexistence": 4046,
      "Ġgovernment": 4047,
      "Ġestimated": 4048,
      "Ġequitable": 4049,
      "Ġremainder": 4050,
      "Ġappears": 4051,
      "Ġauditing": 4052,
      "Ġcertifies": 4053,
      "Ġcredited": 4054,
      "ĠMines": 4055,
      "Ġcapacity": 4056,
      "Ġinserted": 4057,
      "Ġscientific": 4058,
      "tificate": 4059,
      "Ġpenalties": 4060,
      "Ġfunds": 4061,
      "Ġretired": 4062,
      "ĠOthers": 4063,
      "PUBLIC": 4064,
      "Ġfailure": 4065,
      "Ġroads": 4066,
      "Ġvoluntarily": 4067,
      "Ġbirth": 4068,
      "Ġancillary": 4069,
      "ĠDhabalguri": 4070,
      "ĠCOURTS": 4071,
      "Ġtitle": 4072,
      "Ġsanction": 4073,
      "ĠBETWE": 4074,
      "tinguish": 4075,
      "Ġvocational": 4076,
      "Ġaccepted": 4077,
      "Ġdischarging": 4078,
      "Ġaccruing": 4079,
      "Ġenvir": 4080,
      "Ġimplementation": 4081,
      "Ġdisapproving": 4082,
      "employment": 4083,
      "Ġsteps": 4084,
      "Ġmilitary": 4085,
      "Ġmechanically": 4086,
      "ĠIndustries": 4087,
      "Ġkept": 4088,
      "ĠAPPEND": 4089,
      "Ġsingle": 4090,
      "ĠPochagar": 4091,
      "Ġevalu": 4092,
      "Ġempow": 4093,
      "ĠTERRITOR": 4094,
      "ĠIslands": 4095,
      "ĠLieutenant": 4096,
      "ĠBANGLADES": 4097,
      "Ġcontrolled": 4098,
      "Ġpurporting": 4099,
      "Ġdiseases": 4100,
      "Ġselfgovernment": 4101,
      "Ġ16121988": 4102,
      "Ġalcohol": 4103,
      "LANGUAGE": 4104,
      "Ġknowledge": 4105,
      "ĠBETWEEN": 4106,
      "ĠBANGLADESH": 4107,
      "13": 4108,
      "27": 4109,
      "29": 4110,
      "55": 4111,
      "59": 4112,
      "BLE": 4113,
      "Bangladesh": 4114,
      "CHA": 4115,
      "CTS": 4116,
      "IB": 4117,
      "IP": 4118,
      "NC": 4119,
      "RS": 4120,
      "Re": 4121,
      "UD": 4122,
      "VII": 4123,
      "VIC": 4124,
      "ares": 4125,
      "dons": 4126,
      "ding": 4127,
      "danga": 4128,
      "ep": 4129,
      "eenth": 4130,
      "fit": 4131,
      "gments": 4132,
      "hood": 4133,
      "hulbari": 4134,
      "late": 4135,
      "os": 4136,
      "oeconomic": 4137,
      "ttered": 4138,
      "uis": 4139,
      "ument": 4140,
      "uary": 4141,
      "umed": 4142,
      "viction": 4143,
      "Ġlat": 4144,
      "here": 4145,
      "Ġadult": 4146,
      "ince": 4147,
      "inanc": 4148,
      "erries": 4149,
      "Ġsou": 4150,
      "Ġsend": 4151,
      "Ġbene": 4152,
      "tional": 4153,
      "orts": 4154,
      "Ġportion": 4155,
      "ental": 4156,
      "ĠSh": 4157,
      "ĠSER": 4158,
      "Ġcurrent": 4159,
      "ĠAS": 4160,
      "arial": 4161,
      "itative": 4162,
      "Ġferries": 4163,
      "Ġmuch": 4164,
      "Ġmerger": 4165,
      "Ġwards": 4166,
      "ĠPO": 4167,
      "ĠPenal": 4168,
      "ĠPhulbari": 4169,
      "Ġreduced": 4170,
      "Ġbyela": 4171,
      "ange": 4172,
      "inguis": 4173,
      "sel": 4174,
      "Ġsued": 4175,
      "Ġsuitable": 4176,
      "Ġshare": 4177,
      "cember": 4178,
      "Ġnum": 4179,
      "Ġnav": 4180,
      "Ġproposal": 4181,
      "pell": 4182,
      "rage": 4183,
      "Ġhol": 4184,
      "Ġhus": 4185,
      "ĠLANG": 4186,
      "ĠConstitutional": 4187,
      "ithout": 4188,
      "verse": 4189,
      "Ġexchange": 4190,
      "ĠMerger": 4191,
      "thern": 4192,
      "Ġlawful": 4193,
      "ĠĠĠĠĠĠĠĠĠ": 4194,
      "ĠĠĠĠĠĠĠĠĠĠĠĠĠ": 4195,
      "ĠFinanc": 4196,
      "igation": 4197,
      "ĠBor": 4198,
      "tics": 4199,
      "aged": 4200,
      "Ġcontra": 4201,
      "Ġconform": 4202,
      "Ġcontracts": 4203,
      "Ġ207": 4204,
      "Ġ209": 4205,
      "ĠIndiaBangladesh": 4206,
      "Ġpardons": 4207,
      "Ġgra": 4208,
      "ĠEquality": 4209,
      "ultiv": 4210,
      "utta": 4211,
      "akh": 4212,
      "ills": 4213,
      "Ġ112004": 4214,
      "Ġspecif": 4215,
      "Ġadj": 4216,
      "ĠRep": 4217,
      "itionally": 4218,
      "Ġlinguis": 4219,
      "Ġdistur": 4220,
      "1976": 4221,
      "Ġpersonal": 4222,
      "ipl": 4223,
      "Ġserved": 4224,
      "Ġrural": 4225,
      "Ġ242": 4226,
      "Ġauthorisation": 4227,
      "Ġwhene": 4228,
      "ĠDevelopment": 4229,
      "ĠDecember": 4230,
      "ĠXIII": 4231,
      "Ġrecess": 4232,
      "Ġ128": 4233,
      "Ġagencies": 4234,
      "Ġ168": 4235,
      "Ġcome": 4236,
      "Ġ292": 4237,
      "Ġdecided": 4238,
      "Ġ94": 4239,
      "Ġ314": 4240,
      "Ġ1958": 4241,
      "Ġ142": 4242,
      "Ġ144": 4243,
      "Ġ146": 4244,
      "Ġ141986": 4245,
      "Ġ154": 4246,
      "Ġ2012": 4247,
      "hala": 4248,
      "Ġ103": 4249,
      "Ġ104": 4250,
      "Ġ105": 4251,
      "Ġalter": 4252,
      "Ġ210": 4253,
      "Ġdeems": 4254,
      "ERAL": 4255,
      "Ġstation": 4256,
      "Ġstamp": 4257,
      "Ġrequested": 4258,
      "Ġ261": 4259,
      "Ġ267": 4260,
      "Ġjudgments": 4261,
      "Ġ172": 4262,
      "Ġ173": 4263,
      "Ġ176": 4264,
      "Ġ178": 4265,
      "ĠExp": 4266,
      "ĠExchange": 4267,
      "ĠExecutive": 4268,
      "Ġ304": 4269,
      "Ġ308": 4270,
      "Ġassess": 4271,
      "Ġassoci": 4272,
      "Ġ372": 4273,
      "Ġ222": 4274,
      "Ġ227": 4275,
      "Ġtranslation": 4276,
      "Ġadminister": 4277,
      "Ġ270": 4278,
      "Ġ273": 4279,
      "Ġ274": 4280,
      "Ġ275": 4281,
      "Ġcontinues": 4282,
      "Ġtraffic": 4283,
      "Ġ367": 4284,
      "Ġnext": 4285,
      "Ġ254": 4286,
      "Ġ330": 4287,
      "Ġ334": 4288,
      "Ġapplies": 4289,
      "Ġ283": 4290,
      "Ġ2812": 4291,
      "1983": 4292,
      "Ġdirects": 4293,
      "Ġmonuments": 4294,
      "isheries": 4295,
      "Ġcontains": 4296,
      "Ġremove": 4297,
      "Ġpolice": 4298,
      "ĠArmed": 4299,
      "Ġplaced": 4300,
      "Ġfact": 4301,
      "Ġterms": 4302,
      "Ġwell": 4303,
      "Ġconstruction": 4304,
      "Ġxvi": 4305,
      "ĠAlien": 4306,
      "Ġminimum": 4307,
      "Ġemployed": 4308,
      "Ġopen": 4309,
      "Ġ1947": 4310,
      "Ġ2023": 4311,
      "Ġobjects": 4312,
      "Ġprofess": 4313,
      "1990": 4314,
      "1994": 4315,
      "Ġreceiving": 4316,
      "ĠAREA": 4317,
      "Ġremission": 4318,
      "Ġcollect": 4319,
      "Ġbearers": 4320,
      "Ġexceptional": 4321,
      "ENTH": 4322,
      "EMENT": 4323,
      "Ġtenure": 4324,
      "Ġgenerality": 4325,
      "Ġlegislative": 4326,
      "Ġlegislate": 4327,
      "Ġxxvi": 4328,
      "Ġrelettered": 4329,
      "ĠNinetyfirst": 4330,
      "ĠHindu": 4331,
      "ĠTwentysixth": 4332,
      "ĠRestoration": 4333,
      "Ġsocioeconomic": 4334,
      "Ġmessages": 4335,
      "Ġexercises": 4336,
      "Ġinvestigation": 4337,
      "ducing": 4338,
      "ĠFiftyfourth": 4339,
      "Ġliability": 4340,
      "anking": 4341,
      "Ġdivision": 4342,
      "Ġrestricting": 4343,
      "ĠSurvey": 4344,
      "Ġmarkets": 4345,
      "lementing": 4346,
      "Ġ........................................................................": 4347,
      "ECIAL": 4348,
      "Ġoccup": 4349,
      "Ġindustries": 4350,
      "ĠREPUBLIC": 4351,
      "Ġ1121963": 4352,
      "Ġ1371": 4353,
      "Ġinternal": 4354,
      "Ġrevoke": 4355,
      "ĠRestrictions": 4356,
      "Ġpetition": 4357,
      "ĠĠĠĠĠĠĠĠĠĠĠĠĠĠĠĠĠĠĠĠĠĠĠĠĠĠĠĠĠĠĠĠĠĠĠĠĠĠĠĠĠĠĠĠĠĠĠĠĠĠĠĠĠĠĠĠĠĠĠĠĠĠĠĠĠĠĠĠĠĠĠĠĠĠĠĠĠĠĠĠĠĠĠĠĠĠĠĠĠĠĠ": 4358,
      "Ġcompletion": 4359,
      "Ġforests": 4360,
      "ĠBara": 4361,
      "Ġcapital": 4362,
      "Ġreadjusted": 4363,
      "Ġorganisations": 4364,
      "fficient": 4365,
      "Ġindividuals": 4366,
      "Ġanimals": 4367,
      "Ġgroups": 4368,
      "Ġpenalty": 4369,
      "Ġhereafter": 4370,
      "Ġenactments": 4371,
      "Ġcustoms": 4372,
      "bandry": 4373,
      "bandha": 4374,
      "shin": 4375,
      "ĠImposition": 4376,
      "Ġadequately": 4377,
      "Ġguarantee": 4378,
      "ĠDirector": 4379,
      "Ġgenerally": 4380,
      "Ġlicence": 4381,
      "Ġdeclaration": 4382,
      "Ġcomplaints": 4383,
      "Ġsituation": 4384,
      "Ġprorogation": 4385,
      "Ġdifficulties": 4386,
      "Ġestate": 4387,
      "ĠAppell": 4388,
      "Ġincrease": 4389,
      "Ġsecretarial": 4390,
      "Ġ2641975": 4391,
      "Ġassistance": 4392,
      "Ġremuneration": 4393,
      "Ġdesirable": 4394,
      "Ġoccurring": 4395,
      "ĠRELATIONS": 4396,
      "Ġrepugnant": 4397,
      "TRACTS": 4398,
      "ĠPolice": 4399,
      "ĠGarati": 4400,
      "ĠBefore": 4401,
      "Ġarrest": 4402,
      "Ġ............................................................": 4403,
      "PERTY": 4404,
      "Ġineligible": 4405,
      "ĠCalcutta": 4406,
      "ĠLEGISLATIVE": 4407,
      "ĠDahala": 4408,
      "ĠDakshin": 4409,
      "Ġcontingencies": 4410,
      "Ġenclaves": 4411,
      "Ġgranted": 4412,
      "Ġdiscovery": 4413,
      "Ġdemarcated": 4414,
      "ĠmultiState": 4415,
      "Ġschool": 4416,
      "Ġresearch": 4417,
      "ĠTerm": 4418,
      "Ġ5111971": 4419,
      "ĠAnnual": 4420,
      "Ġrestrict": 4421,
      "ĠAPPENDIX": 4422,
      "Ġevaluate": 4423,
      "Ġalcoholic": 4424,
      "Relations": 4425,
      "ĠSERVIC": 4426,
      "Ġbyelaw": 4427,
      "Ġnumerals": 4428,
      "Ġnavigation": 4429,
      "Ġholder": 4430,
      "Ġhusbandry": 4431,
      "ĠFinancial": 4432,
      "Ġcontravention": 4433,
      "Ġconformity": 4434,
      "Ġlinguistic": 4435,
      "Ġdisturb": 4436,
      "Ġwhenever": 4437,
      "ĠAppellate": 4438,
      "01": 4439,
      "04": 4440,
      "83": 4441,
      "96": 4442,
      "All": 4443,
      "Co": 4444,
      "If": 4445,
      "ING": 4446,
      "Me": 4447,
      "Od": 4448,
      "RIB": 4449,
      "UND": 4450,
      "VES": 4451,
      "VIII": 4452,
      "When": 4453,
      "aha": 4454,
      "cy": 4455,
      "cent": 4456,
      "cess": 4457,
      "ech": 4458,
      "ever": 4459,
      "elf": 4460,
      "eel": 4461,
      "fan": 4462,
      "gers": 4463,
      "ipp": 4464,
      "ium": 4465,
      "jeel": 4466,
      "ka": 4467,
      "khar": 4468,
      "len": 4469,
      "mat": 4470,
      "mall": 4471,
      "ni": 4472,
      "over": 4473,
      "osp": 4474,
      "rin": 4475,
      "range": 4476,
      "ship": 4477,
      "tong": 4478,
      "tency": 4479,
      "uing": 4480,
      "under": 4481,
      "uity": 4482,
      "ume": 4483,
      "ulations": 4484,
      "vate": 4485,
      "xic": 4486,
      "Ġ..": 4487,
      "Ġill": 4488,
      "Ġtram": 4489,
      "Ġaway": 4490,
      "inarily": 4491,
      "ery": 4492,
      "erience": 4493,
      "enior": 4494,
      "reg": 4495,
      "Ġshe": 4496,
      "Ġside": 4497,
      "Ġsector": 4498,
      "Ġsenior": 4499,
      "Ġbest": 4500,
      "Ġbridges": 4501,
      "isala": 4502,
      "atuity": 4503,
      "alla": 4504,
      "alpa": 4505,
      "orm": 4506,
      "oral": 4507,
      "Ġ156": 4508,
      "Ġcash": 4509,
      "ĠCust": 4510,
      "ars": 4511,
      "arjeel": 4512,
      "Ġfo": 4513,
      "Ġfu": 4514,
      "Ġmis": 4515,
      "Ġmother": 4516,
      "Ġmoral": 4517,
      "Ġwil": 4518,
      "Ġwild": 4519,
      "cture": 4520,
      "ĠPt": 4521,
      "ĠPurb": 4522,
      "Ġrede": 4523,
      "Ġreject": 4524,
      "Ġrebe": 4525,
      "ough": 4526,
      "Ġdates": 4527,
      "leum": 4528,
      "sem": 4529,
      "atever": 4530,
      "Ġsuit": 4531,
      "Ġsuff": 4532,
      "Ġsupers": 4533,
      "Ġthough": 4534,
      "Ġequal": 4535,
      "ĠTRA": 4536,
      "ĠTRIB": 4537,
      "Ġforward": 4538,
      "omic": 4539,
      "ompe": 4540,
      "tuff": 4541,
      "Ġnam": 4542,
      "Ġnalla": 4543,
      "asw": 4544,
      "Ġprohibition": 4545,
      "Ġhist": 4546,
      "Ġhosp": 4547,
      "rie": 4548,
      "that": 4549,
      "ĠHIGH": 4550,
      "irit": 4551,
      "Ġextinguish": 4552,
      "iform": 4553,
      "otor": 4554,
      "otes": 4555,
      "otamari": 4556,
      "ĠĠĠĠĠĠĠĠĠĠĠĠĠĠ": 4557,
      "ĠFores": 4558,
      "iguri": 4559,
      "Ġwhatever": 4560,
      "ĠBa": 4561,
      "ĠBackward": 4562,
      "pplement": 4563,
      "1956": 4564,
      "ĠRIGH": 4565,
      "ĠDE": 4566,
      "ĠDarjeel": 4567,
      "ude": 4568,
      "ched": 4569,
      "Ġarrange": 4570,
      "amind": 4571,
      "Ġ208": 4572,
      "itors": 4573,
      "Ġapportion": 4574,
      "Ġappended": 4575,
      "ĠPresidents": 4576,
      "ayment": 4577,
      "Ġdetail": 4578,
      "llion": 4579,
      "esses": 4580,
      "ĠEduc": 4581,
      "lature": 4582,
      "Ġvari": 4583,
      "ĠJan": 4584,
      "ĠJag": 4585,
      "Ġconsc": 4586,
      "Ġconsolid": 4587,
      "Ġconsecutive": 4588,
      "Ġadjud": 4589,
      "Ġadverse": 4590,
      "Ġincompe": 4591,
      "Ġexperience": 4592,
      "ĠRemo": 4593,
      "Ġjoin": 4594,
      "Ġjust": 4595,
      "Ġpurse": 4596,
      "Ġlib": 4597,
      "Ġliving": 4598,
      "Ġ1967": 4599,
      "Ġdismiss": 4600,
      "Ġregards": 4601,
      "Ġperman": 4602,
      "Ġpertaining": 4603,
      "Ġrent": 4604,
      "Ġrate": 4605,
      "Ġrender": 4606,
      "Ġunable": 4607,
      "ieties": 4608,
      "Ġ240": 4609,
      "Ġ245": 4610,
      "encing": 4611,
      "ĠDepart": 4612,
      "Ġyet": 4613,
      "ensaries": 4614,
      "Ġcoun": 4615,
      "Ġ1111973": 4616,
      "Ġ161": 4617,
      "Ġ165": 4618,
      "ĠKuchlibari": 4619,
      "Ġ294": 4620,
      "Ġdeciding": 4621,
      "Ġsubjected": 4622,
      "Ġ312": 4623,
      "Ġ316": 4624,
      "Ġ318": 4625,
      "ĠWat": 4626,
      "ĠWithout": 4627,
      "Ġ147": 4628,
      "Ġ149": 4629,
      "Ġ150": 4630,
      "Ġ15112000": 4631,
      "Ġ1111966": 4632,
      "Ġpassen": 4633,
      "Ġquo": 4634,
      "Ġ2002": 4635,
      "Ġalien": 4636,
      "Ġaltered": 4637,
      "anger": 4638,
      "minent": 4639,
      "Ġinterim": 4640,
      "Ġinterested": 4641,
      "Ġ213": 4642,
      "Ġ215": 4643,
      "ĠRegulations": 4644,
      "Ġ180": 4645,
      "Ġ184": 4646,
      "Ġ185": 4647,
      "Ġstock": 4648,
      "ĠPanchagar": 4649,
      "Ġrequisition": 4650,
      "Ġ265": 4651,
      "Ġproceeding": 4652,
      "ĠOrganisation": 4653,
      "Ġboards": 4654,
      "ĠLists": 4655,
      "Ġ175": 4656,
      "Ġexercising": 4657,
      "troleum": 4658,
      "Ġtwel": 4659,
      "Ġmanage": 4660,
      "ĠExtension": 4661,
      "viation": 4662,
      "Ġ300": 4663,
      "Ġ302": 4664,
      "Ġassume": 4665,
      "ounds": 4666,
      "Ġoperative": 4667,
      "Ġ223": 4668,
      "Ġ225": 4669,
      "Ġ228": 4670,
      "two": 4671,
      "Ġ341": 4672,
      "Ġ343": 4673,
      "Ġ344": 4674,
      "Ġdetermining": 4675,
      "ĠPatgar": 4676,
      "Ġ271": 4677,
      "Ġ278": 4678,
      "Ġcoop": 4679,
      "Ġ326": 4680,
      "Ġ327": 4681,
      "2011": 4682,
      "Ġtrading": 4683,
      "2001": 4684,
      "Ġabout": 4685,
      "Ġability": 4686,
      "Ġgratuity": 4687,
      "Ġvacated": 4688,
      "Ġ258": 4689,
      "Ġfollows": 4690,
      "Ġallowed": 4691,
      "Ġallowance": 4692,
      "Ġ280": 4693,
      "Ġ284": 4694,
      "Ġreassemb": 4695,
      "Ġmodify": 4696,
      "Ġcharact": 4697,
      "Ġraw": 4698,
      "amily": 4699,
      "1961": 4700,
      "present": 4701,
      "Ġprior": 4702,
      "Ġprivy": 4703,
      "Ġfactor": 4704,
      "Ġ351": 4705,
      "Ġtransferable": 4706,
      "ĠAnother": 4707,
      "Ġprin": 4708,
      "ĠComp": 4709,
      "Ġdefence": 4710,
      "Ġdefection": 4711,
      "Ġsupplies": 4712,
      "itals": 4713,
      "Ġconsulted": 4714,
      "Ġconsulting": 4715,
      "Ġkind": 4716,
      "Ġlevels": 4717,
      "Ġrepresented": 4718,
      "Ġextending": 4719,
      "Ġassents": 4720,
      "Ġemployees": 4721,
      "ĠSCHEDULED": 4722,
      "Ġfigure": 4723,
      "Ġprofession": 4724,
      "urrence": 4725,
      "tistics": 4726,
      "Ġordinarily": 4727,
      "1992": 4728,
      "Ġinstance": 4729,
      "Ġdispensaries": 4730,
      "ĠThirtysecond": 4731,
      "Ġconcurrence": 4732,
      "ordination": 4733,
      "Ġrequirement": 4734,
      "ĠSuch": 4735,
      "ĠSupplement": 4736,
      "Ġmaintained": 4737,
      "Ġprincipal": 4738,
      "Ġendow": 4739,
      "Ġarts": 4740,
      "ĠCoal": 4741,
      "ĠPROPERTY": 4742,
      "ĠEightyninth": 4743,
      "Ġinstructions": 4744,
      "Ġbased": 4745,
      "Ġlimitation": 4746,
      "Ġreceipts": 4747,
      "justment": 4748,
      "Ġrotation": 4749,
      "Ġstandard": 4750,
      "Ġstandards": 4751,
      "ĠFiftysecond": 4752,
      "Ġpossession": 4753,
      "Ġstatistics": 4754,
      "ĠTufan": 4755,
      "Ġproportional": 4756,
      "ECU": 4757,
      "Ġindustry": 4758,
      "Ġcommunications": 4759,
      "Ġobligation": 4760,
      "ĠSeventythird": 4761,
      "Ġremains": 4762,
      "Ġlikely": 4763,
      "Ġspirit": 4764,
      "Ġpetroleum": 4765,
      "Ġcertificate": 4766,
      "Ġminority": 4767,
      "ĠRecords": 4768,
      "Ġexclusion": 4769,
      "Ġ1191956": 4770,
      "Ġdocument": 4771,
      "rigation": 4772,
      "Ġmunicipality": 4773,
      "Ġclaims": 4774,
      "Ġcountries": 4775,
      "Ġenactment": 4776,
      "Ġcandidates": 4777,
      "Ġretire": 4778,
      "Ġlakhs": 4779,
      "Ġinvolving": 4780,
      "Ġinvolves": 4781,
      "Ġ1908": 4782,
      "Ġ1922004": 4783,
      "ĠDirective": 4784,
      "Ġcontrary": 4785,
      "Ġlicences": 4786,
      "Ġlieu": 4787,
      "Ġdeclaring": 4788,
      "Ġcomplaint": 4789,
      "Ġdifficulty": 4790,
      "Ġspeed": 4791,
      "Ġspeech": 4792,
      "Ġborn": 4793,
      "Ġexamin": 4794,
      "Ġliquor": 4795,
      "ARY": 4796,
      "Ġirrigation": 4797,
      "ĠSPECIAL": 4798,
      "Ġmensem": 4799,
      "Ġ22026": 4800,
      "ĠTrade": 4801,
      "ĠIncorporation": 4802,
      "Ġ1551994": 4803,
      "Ġcompanies": 4804,
      "Ġdiscrimination": 4805,
      "Ġfurnishing": 4806,
      "Ġaerodrome": 4807,
      "Union": 4808,
      "Ġsanitation": 4809,
      "ĠSocieties": 4810,
      "Ġmagistrate": 4811,
      "ĠDecision": 4812,
      "ĠNalgram": 4813,
      "Ġheading": 4814,
      "Ġstrip": 4815,
      "Ġmanufactured": 4816,
      "Ġcompensation": 4817,
      "ĠGOVERNMENT": 4818,
      "Any": 4819,
      "ĠZamind": 4820,
      "Ġzone": 4821,
      "Ġbuildings": 4822,
      "ĠPanisala": 4823,
      "Ġassembled": 4824,
      "ological": 4825,
      "Ġwithholds": 4826,
      "ĠBoard": 4827,
      "Ġcommunicate": 4828,
      "Ġabolished": 4829,
      "Ġdesignated": 4830,
      "Ġenvironment": 4831,
      "Ġlater": 4832,
      "Ġsouthern": 4833,
      "Ġbenefit": 4834,
      "Ġspecific": 4835,
      "Ġadjour": 4836,
      "ĠAlienated": 4837,
      "Ġschools": 4838,
      "Ġdisturbance": 4839,
      "Cooperative": 4840,
      "elfth": 4841,
      "tongue": 4842,
      "xicating": 4843,
      "alpaiguri": 4844,
      "ĠCustody": 4845,
      "Ġmothertongue": 4846,
      "ĠPurba": 4847,
      "Ġrebellion": 4848,
      "Ġsuffrage": 4849,
      "tuffs": 4850,
      "Ġnallah": 4851,
      "Ġhistor": 4852,
      "Ġhospitals": 4853,
      "ĠDarjeeling": 4854,
      "Ġdetails": 4855,
      "Ġincompetency": 4856,
      "ĠRemoval": 4857,
      "Ġpermanent": 4858,
      "Ġpassengers": 4859,
      "ĠPanchagarh": 4860,
      "Ġtwelve": 4861,
      "ĠPatgarm": 4862,
      "Ġcharacter": 4863,
      "ĠSupplementary": 4864,
      "ĠTufanganj": 4865,
      "ĠZamindari": 4866,
      "AY": 4867,
      "ATIVE": 4868,
      "AMENT": 4869,
      "CA": 4870,
      "EO": 4871,
      "FTH": 4872,
      "GRE": 4873,
      "IL": 4874,
      "ITIES": 4875,
      "KER": 4876,
      "Legis": 4877,
      "MEND": 4878,
      "MAN": 4879,
      "Nad": 4880,
      "TER": 4881,
      "UN": 4882,
      "VENTH": 4883,
      "WER": 4884,
      "ah": 4885,
      "ai": 4886,
      "au": 4887,
      "aties": 4888,
      "action": 4889,
      "ault": 4890,
      "bh": 4891,
      "but": 4892,
      "bility": 4893,
      "beas": 4894,
      "cing": 4895,
      "cession": 4896,
      "dec": 4897,
      "dress": 4898,
      "ety": 4899,
      "elfare": 4900,
      "fter": 4901,
      "gg": 4902,
      "htia": 4903,
      "iver": 4904,
      "icted": 4905,
      "juri": 4906,
      "ki": 4907,
      "king": 4908,
      "ket": 4909,
      "ling": 4910,
      "llan": 4911,
      "nity": 4912,
      "oy": 4913,
      "ove": 4914,
      "oting": 4915,
      "oks": 4916,
      "pon": 4917,
      "pus": 4918,
      "pension": 4919,
      "ril": 4920,
      "rants": 4921,
      "uable": 4922,
      "vable": 4923,
      "will": 4924,
      "yot": 4925,
      "Ġtab": 4926,
      "Ġtry": 4927,
      "Ġaut": 4928,
      "Ġaward": 4929,
      "onisation": 4930,
      "tior": 4931,
      "tile": 4932,
      "tiaries": 4933,
      "inned": 4934,
      "inafter": 4935,
      "inery": 4936,
      "enerally": 4937,
      "entiaries": 4938,
      "recy": 4939,
      "Ġsold": 4940,
      "Ġsign": 4941,
      "Ġsessions": 4942,
      "Ġserve": 4943,
      "Ġsmall": 4944,
      "Ġbro": 4945,
      "Ġbills": 4946,
      "Ġbanking": 4947,
      "ndam": 4948,
      "ises": 4949,
      "isce": 4950,
      "ature": 4951,
      "atrig": 4952,
      "almon": 4953,
      "orted": 4954,
      "Ġpec": 4955,
      "Ġpanch": 4956,
      "Ġpests": 4957,
      "Ġports": 4958,
      "Ġpounds": 4959,
      "eds": 4960,
      "edu": 4961,
      "ĠSE": 4962,
      "ĠSl": 4963,
      "ĠSo": 4964,
      "ĠSab": 4965,
      "ĠSus": 4966,
      "ĠSuc": 4967,
      "ĠSessions": 4968,
      "ĠSector": 4969,
      "Ġinfer": 4970,
      "Ġceiling": 4971,
      "Ġcastes": 4972,
      "Ġcine": 4973,
      "ĠCol": 4974,
      "ĠAcc": 4975,
      "ĠAGRE": 4976,
      "ĠAMEND": 4977,
      "ĠAfter": 4978,
      "ara": 4979,
      "arg": 4980,
      "artic": 4981,
      "itness": 4982,
      "Ġfod": 4983,
      "Ġfear": 4984,
      "Ġfound": 4985,
      "Ġfisheries": 4986,
      "Ġfamily": 4987,
      "Ġmer": 4988,
      "Ġward": 4989,
      "Ġwinding": 4990,
      "Ġwitness": 4991,
      "ctob": 4992,
      "ĠPas": 4993,
      "ĠPEO": 4994,
      "lared": 4995,
      "ropri": 4996,
      "Ġref": 4997,
      "Ġrep": 4998,
      "Ġreported": 4999
    },
    "merges": [
      "Ġ t",
      "h e",
      "Ġ o",
      "Ġ a",
      "Ġt he",
      "o n",
      "Ġo f",
      "t i",
      "i n",
      "e r",
      "e n",
      "r e",
      "Ġ s",
      "Ġ b",
      "n d",
      "i s",
      "a t",
      "ti on",
      "a l",
      "o r",
      "e s",
      "Ġ p",
      "e d",
      "en t",
      "Ġ S",
      "Ġ Ġ",
      "Ġ in",
      "Ġ 1",
      "Ġt o",
      "Ġ c",
      "Ġ C",
      "Ġ A",
      "Ġa nd",
      "a r",
      "i t",
      "Ġ f",
      "Ġ m",
      "Ġ w",
      "c t",
      "Ġ P",
      "l a",
      "Ġo r",
      "Ġb e",
      "r o",
      ". .",
      "m ent",
      "Ġ re",
      "Ġ 2",
      "Ġb y",
      "o u",
      "i c",
      "a n",
      "on s",
      "Ġ d",
      "Ġa n",
      "in g",
      "l e",
      "s e",
      "at e",
      "Ġs u",
      "Ġt h",
      "Ġ e",
      "Ġ T",
      "a tion",
      "c h",
      "Ġf or",
      "al l",
      "Ġan y",
      "ĠS t",
      "i d",
      "ĠĠ ĠĠ",
      "Ġs h",
      "Ġsh all",
      "Ġm a",
      "Ġ I",
      "Ġa s",
      "Ġ1 9",
      "c e",
      "ĠA ct",
      "Ġ 3",
      "o m",
      "t u",
      "ĠSt ate",
      "i on",
      "en d",
      "i l",
      "Ġ n",
      "er s",
      "a s",
      "Ġp ro",
      ".. ..",
      "p e",
      "ti tu",
      "r a",
      "v e",
      "Ġ h",
      "Ġsu ch",
      "r i",
      "t h",
      "ons titu",
      "Ġ L",
      "re s",
      "Ġ u",
      "m end",
      "i a",
      "onstitu tion",
      "Ġ H",
      "ĠC onstitution",
      "he r",
      "Ġ la",
      "i r",
      "ĠC ou",
      "it h",
      "ĠP ar",
      "v er",
      "e g",
      "Ġe x",
      "Ġma y",
      "mend ment",
      "m b",
      "i f",
      "is t",
      "Ġth at",
      "l y",
      "o t",
      "o l",
      "ĠT he",
      "Ġ M",
      "Ġ G",
      "u r",
      "Ġo n",
      "d u",
      "Ġre s",
      "Ġw ith",
      "t her",
      "Ġth is",
      "ĠA mendment",
      "Ġpro v",
      "Ġla w",
      "n g",
      "T I",
      "ĠĠĠĠ ĠĠĠĠ",
      "t y",
      "Ġ F",
      "i g",
      "e c",
      "O N",
      "i m",
      "t er",
      "s t",
      "Ġw h",
      "Ġ B",
      "r t",
      "p p",
      "1 9",
      "eg is",
      "ĠL egis",
      "ĠG o",
      "Ġ O",
      "Ġ R",
      "ti c",
      "om m",
      "nd er",
      "Ġ is",
      "ver n",
      "Ġu nder",
      "u re",
      "Ġ 4",
      "n c",
      "Ġ D",
      "u d",
      "ĠGo vern",
      "o w",
      "Ġ N",
      "Ġm e",
      ".... ....",
      "ic e",
      "t ed",
      "a g",
      "ti ng",
      "u b",
      "Ġ19 7",
      "Ġ U",
      "Ġo ther",
      "c he",
      "id ent",
      "ti ve",
      "Ġa r",
      "a nd",
      "Ġprov is",
      "che du",
      "u se",
      "ĠS chedu",
      "ĠI nd",
      "Ġc on",
      "a m",
      "Ġsu b",
      "res ident",
      "Ġc la",
      "ĠP ro",
      "q u",
      "i ons",
      "l ia",
      "Ġ2 0",
      "d e",
      "it or",
      "Ġn ot",
      "pe c",
      "ĠU n",
      "Ġa pp",
      "nc il",
      "ĠH ou",
      "Ġwh ic",
      "ĠP resident",
      "a y",
      "ĠCou rt",
      "Ġar tic",
      "lia ment",
      "ĠInd ia",
      "Ġ 5",
      "Ġd e",
      "Ġwhic h",
      "f er",
      "ĠPar liament",
      "o d",
      "l l",
      "ĠCou ncil",
      "ĠUn ion",
      "er v",
      "r itor",
      "er ritor",
      "H E",
      "re d",
      "e ct",
      "es s",
      "Ġp ar",
      "Ġ g",
      "Ġs o",
      "at es",
      "Ġartic le",
      "Ġ E",
      "o re",
      "u l",
      "tion s",
      "ĠPar t",
      "ro m",
      "Ġof f",
      "it y",
      "Ġma de",
      "ĠT HE",
      "Ġcla use",
      "Ġ it",
      "Ġf rom",
      "u t",
      "N D",
      "l at",
      "Ġ v",
      "s es",
      "en ce",
      "is s",
      "Ġme mb",
      "i ed",
      "i es",
      "i al",
      "ĠLegis lat",
      "a k",
      "Ġt erritor",
      "ĠC h",
      "pe ct",
      "p o",
      "ĠHou se",
      "Ġres pect",
      "Ġh a",
      "ĠO F",
      "ĠA s",
      "Ġprovis ions",
      "Ġ J",
      "il l",
      "ON S",
      "f f",
      "t a",
      "ig h",
      "I A",
      "ĠSt ates",
      "Ġ1 1",
      "Ġc omm",
      "t s",
      "Ġp ers",
      "p h",
      "ĠLegislat ure",
      "ĠS ub",
      "o p",
      "ist ri",
      "ĠGovern or",
      "ĠI ND",
      "TI ON",
      "ĠIND IA",
      "ra ph",
      "u n",
      "T U",
      "Ġ he",
      "Ġa ll",
      "Ġthe re",
      "ar y",
      "ag raph",
      "ĠC ONS",
      "TI TU",
      "ĠCONS TITU",
      "ti es",
      "ĠSchedu le",
      "ĠCONSTITU TION",
      "Ġs pec",
      "Ġc ons",
      "Ġa re",
      "Ġa c",
      "Ġc a",
      "or d",
      "ĠPro v",
      "g e",
      "ĠC omm",
      "an ce",
      "istri ct",
      "5 6",
      "Ġa d",
      "ic ation",
      "ĠĠĠĠĠĠĠĠ ĠĠĠĠĠĠĠĠ",
      "o in",
      "Ġ 6",
      "Ġin c",
      "f ore",
      "Ġoff ice",
      "la tive",
      "Ġ i",
      "Ġex p",
      "if ied",
      "ĠLegis lative",
      "ĠR e",
      "Ġbe fore",
      "la tion",
      "l ed",
      "a b",
      "ri b",
      "ĠGovern ment",
      "u nd",
      "ĠSub s",
      "id ed",
      "Ġ j",
      "Ġha ve",
      "d er",
      "i tion",
      "Ġp ur",
      "an s",
      "at ed",
      "Ġh is",
      "i x",
      "Ġ l",
      "Ġp ow",
      "an c",
      "in ist",
      "Ġn o",
      "........ ........",
      "iss ion",
      "Ġma k",
      "Ġh as",
      "m ed",
      "Ġ19 6",
      "i v",
      "m it",
      "Ġm at",
      "Ġd is",
      "19 7",
      "ta in",
      "Ġpers on",
      "u s",
      "ĠI n",
      "Ġre g",
      "Ġ 7",
      "se mb",
      "i p",
      "Ġre fer",
      "Ġ im",
      "Ġp er",
      "on d",
      "mit ted",
      "Ġ if",
      "ĠAs semb",
      "c tion",
      "Ġ V",
      "Ġmemb ers",
      "ĠComm ission",
      "Ġa t",
      "Ġca se",
      "l ud",
      "Ġe le",
      "a ir",
      "u p",
      "Ġs erv",
      "j ect",
      "c la",
      "Ġspec ified",
      "Ġpur po",
      "ĠAssemb ly",
      "Ġs e",
      "ou r",
      "v ent",
      "Ġ r",
      "ĠL and",
      "2 0",
      "e ar",
      "ub l",
      "d es",
      "t e",
      "Ġbe en",
      "ĠSchedu led",
      "m e",
      "Ġu n",
      "ou s",
      "i e",
      "I I",
      "u th",
      "Ġ2 4",
      "th ing",
      "des h",
      "en c",
      "ĠS e",
      "uth or",
      "Ġ le",
      "is e",
      "Ġa uthor",
      "Ġterritor y",
      "Ġapp oin",
      "Ġinc lud",
      "a id",
      "Ġor der",
      "ĠH igh",
      "ĠF or",
      "Ġw he",
      "f or",
      "Ġ19 8",
      "ar d",
      "ĠS up",
      "h ar",
      "ĠD e",
      "re me",
      "Ġ 8",
      "ĠSup reme",
      "a d",
      "Ġa f",
      "Ġ1 3",
      "ĠN o",
      "p er",
      "a x",
      "Ġ y",
      "Ġt im",
      "i re",
      "Ġ X",
      "ir st",
      "ĠCh air",
      "ĠIn s",
      "Ġre c",
      "Ġmak e",
      "Ġtim e",
      "at s",
      "ence ment",
      "ff ect",
      "t ers",
      "Ġ1 2",
      "ubl ic",
      "p or",
      "en s",
      "Ġcomm encement",
      "Ġy ear",
      "er al",
      "m ation",
      "p t",
      "Ġc ou",
      "a ch",
      "s ed",
      "ĠP ra",
      "ĠJ ud",
      "Ġac c",
      "Ġpar agraph",
      "ĠPra desh",
      "T he",
      "Ġd istrict",
      "o c",
      "c ed",
      "m an",
      "p ar",
      "ĠProv ided",
      "g an",
      "i ties",
      "p u",
      "Ġa g",
      "Ġs ec",
      "Ġit s",
      "i od",
      "Ġper iod",
      "Ġ11 1",
      "ĠB ill",
      "Ġaf ter",
      "Ġ1 6",
      "Ġc om",
      "a c",
      "Ġ K",
      "Ġth an",
      "pe ak",
      "vent h",
      "is ation",
      "Ġ2 9",
      "am e",
      "Ġe ffect",
      "Ġmat ters",
      "g h",
      "ol u",
      "Ġprovis ion",
      "Ġp re",
      "Ġd u",
      "Ġd ec",
      "mb er",
      "ĠChair man",
      "r u",
      "on om",
      "Ġsub ject",
      "i b",
      "w ith",
      "Ġ 9",
      "ar i",
      "ol d",
      "ab le",
      "Ġ3 1",
      "es t",
      "ĠFor ty",
      "ing s",
      "peak er",
      "m s",
      "ĠS peaker",
      "Ġmemb er",
      "Ġrefer red",
      "Ġo mitted",
      "er tain",
      "ord s",
      "Ġ en",
      "on e",
      "and ing",
      "Ġ W",
      "la ting",
      "Ġpow er",
      "Ġt ax",
      "Ġ19 5",
      "Ġ1 4",
      "ag e",
      "st anding",
      "Ġpurpo ses",
      "ĠSe venth",
      "Ġ1 5",
      "Ġ19 56",
      "Ġwith in",
      "gan isation",
      "Ġ111 19",
      "with standing",
      "Ġp as",
      "Ġcou rt",
      "e op",
      "r y",
      "r ans",
      "Ġ qu",
      "ver y",
      "o f",
      "Ġin s",
      "ra m",
      "Ġ20 1",
      "ĠT rib",
      "Ġterritor ies",
      "eop le",
      "Ġ20 0",
      "Ġpar t",
      "Ġ11119 56",
      "h al",
      "l ig",
      "n t",
      "Ġt ak",
      "ce ed",
      "ĠM inist",
      "Ġthere of",
      "Ġinclud ing",
      "g es",
      "Ġ1 0",
      "Ġauthor ity",
      "Ġa l",
      "ti f",
      "Ġs aid",
      "an g",
      "Ġw ords",
      "Ġd ate",
      "olu tion",
      "m in",
      "Ġ ri",
      "Ġin t",
      "ation al",
      "ĠF und",
      "u lation",
      "u mber",
      "Ġin ter",
      "ĠS ch",
      "ic es",
      "ig n",
      "Ġwh o",
      "m inist",
      "ct ed",
      "Ġ2 1",
      "Ġp res",
      "Ġlaw s",
      "ĠD istrict",
      "it her",
      "Ġre lation",
      "Ġsub par",
      "r ic",
      "ĠP eople",
      "Ġd ire",
      "id e",
      "Ġsubpar agraph",
      "u e",
      "Ġ ent",
      "Ġ2 3",
      "Ġon e",
      "ut onom",
      "our th",
      "utonom ous",
      "or ganisation",
      "an ch",
      "ĠR eg",
      "Ġde e",
      "ĠRe organisation",
      "r al",
      "ĠF irst",
      "Ġpow ers",
      "an t",
      "Ġ197 6",
      "E R",
      "ĠPro cla",
      "ĠProcla mation",
      "Ġany thing",
      "med i",
      "ĠA re",
      "Ġfor ce",
      "Ġri gh",
      "medi ate",
      "Ġ1 8",
      "on g",
      "Ġc onstitu",
      "ment s",
      "Ġe ither",
      "Ġserv ice",
      ". ,",
      "v ing",
      "Ġs t",
      "Ġf in",
      "Ġe ach",
      "ĠC on",
      "ĠP anch",
      "Ġre lating",
      "ve l",
      "ĠĠĠĠĠĠĠĠĠĠĠĠĠĠĠĠ ĠĠĠĠĠĠĠĠĠĠĠĠĠĠĠĠ",
      "is ting",
      "if ication",
      "Ġare a",
      "Ġappoin ted",
      "ĠDe pu",
      "Ġyear s",
      "ĠDepu ty",
      "er c",
      "Ġc ertain",
      "Ġre qu",
      "Ġ2 6",
      "Ġpro ceed",
      "Ġex ce",
      "ĠO r",
      "ie f",
      "ced ure",
      "l d",
      "Ġapp ly",
      "un ic",
      "Ġpas sed",
      "l es",
      "Ġa utonomous",
      "Ġb ut",
      "Ġbe ing",
      "ic tion",
      "ur ing",
      "ip al",
      "b id",
      "v en",
      "re e",
      "Ġb o",
      "ĠHou ses",
      "ĠAs s",
      "Ġim mediate",
      "ĠTrib es",
      "u m",
      "Ġa mendment",
      "ti ce",
      "en eral",
      "Ġp ublic",
      "ation s",
      "Ġi bid",
      "Ġj ud",
      "ĠPanch ay",
      "u nc",
      "Ġ197 1",
      "Ġ24 3",
      "one y",
      "Ġso c",
      "Ġse ats",
      "t ra",
      "ĠL ist",
      "ur is",
      "Ġimmediate ly",
      "d iction",
      "Ġp o",
      "Ġ1 7",
      "ĠA d",
      "Ġex erc",
      "................ ................",
      "unic ipal",
      "uris diction",
      "m o",
      "t ro",
      "Ġt w",
      "Ġm an",
      "Ġexp ir",
      "g al",
      "ti l",
      "as t",
      "ĠE x",
      "Ġno tif",
      "v i",
      "Ġf unc",
      "Ġdee med",
      "is h",
      "Ġ3 0",
      "Ġg o",
      "ti n",
      "Ġas s",
      "om mend",
      "ol id",
      "Ġme ans",
      "od s",
      "ĠCh ief",
      "ĠJud ge",
      "e en",
      "i ve",
      "ou nd",
      "ri es",
      "ĠC ons",
      "ul es",
      "Ġrec ommend",
      "Ġacc ord",
      "la n",
      "anc es",
      "t ent",
      "u res",
      "Ġ ed",
      "Ġo per",
      "Ġd ay",
      "l ess",
      "at h",
      "all y",
      "ot withstanding",
      "Ġres erv",
      "Ġj urisdiction",
      "ix th",
      "Ġappoin t",
      "Ġcom p",
      "f ourth",
      "Ġ3 7",
      "Ġn umber",
      "as h",
      "qu al",
      "Ġi i",
      "Ġmat ter",
      "ĠCons olid",
      "ĠS erv",
      "ĠA pp",
      "Ġ2 2",
      "se c",
      "Ġres olution",
      "ec ess",
      "pec ial",
      "for ms",
      "ĠAre as",
      "w ise",
      "Ġh old",
      "ĠM e",
      "ĠM unicipal",
      "Ġother wise",
      "ĠProv is",
      "R T",
      "t w",
      "ar ies",
      "Ġ3 4",
      "ter min",
      "ĠRe forms",
      "ĠAss am",
      "d i",
      "Ġt rans",
      "Ġsub cla",
      "Ġde termin",
      "Ġad minist",
      "ĠConsolid ated",
      "a j",
      "Ġa ff",
      "Ġw as",
      "ĠP ow",
      "Ġe very",
      "ion al",
      "Ġu p",
      "Ġcons id",
      "Ġr ules",
      "Ġun less",
      "o se",
      "Ġex isting",
      "Ġapp ro",
      "po s",
      "Ġun til",
      "Ġexpir ation",
      "L E",
      "l ow",
      "u c",
      "Ġo ut",
      "Ġd uring",
      "Ġg iv",
      "Ġad d",
      "Ġpurpo se",
      "sec ond",
      "g ram",
      "v al",
      "Ġh im",
      "res s",
      "ec tion",
      "Ġpers ons",
      "Ġqu es",
      "Ġs al",
      "Ġc as",
      "ĠP at",
      "Ġ2 7",
      "Ġn ecess",
      "Ġpro cedure",
      "ul tu",
      "oin t",
      "us tice",
      "Ġoff ic",
      "Ġnecess ary",
      "Ġs it",
      "ĠĠ Ġ",
      "Ġc o",
      "Ġbe tw",
      "ĠT h",
      "Ġ3 2",
      "Ġele ction",
      "20 1",
      "Ġed uc",
      "Ġbetw een",
      "g ment",
      "Ġcon fer",
      "Ġcon tin",
      "Ġdu ties",
      "ification s",
      "a tive",
      "l o",
      "n e",
      "Ġt ra",
      "20 0",
      "enc y",
      "Ġa b",
      "ĠS pecial",
      "Ġ3 6",
      "ĠB en",
      "Ġg r",
      "hal f",
      "Ġproceed ings",
      "Ġtw o",
      "a p",
      "t t",
      "u st",
      "Ġa ct",
      "Ġn e",
      "Ġcla s",
      "Ġv ac",
      "Ġserv ices",
      "Ġint o",
      "Ġconsid er",
      "ĠBen gal",
      "c tions",
      "pe al",
      "ec u",
      "Ġ197 8",
      "Ġrigh ts",
      "Ġfin anc",
      "Ġexce pt",
      "Ġsubcla use",
      "A RT",
      "is ed",
      "Ġ2 5",
      "ĠN a",
      "Ġwhe re",
      "ĠPat gram",
      "Ġf ol",
      "Ġbe half",
      "il ing",
      "ĠW est",
      "Ġnotif ication",
      "Ġfunc tions",
      "Ġfol low",
      "it ure",
      "Ġf ur",
      "ir d",
      "Ġall ow",
      "Ġsec tion",
      "e iling",
      "m p",
      "Ġa m",
      "ĠP ublic",
      "Ġth ose",
      "ĠT erritor",
      "Ġ3 3",
      "ĠN otwithstanding",
      "pec tive",
      "Ġele cted",
      "ric ultu",
      "i ti",
      "v ed",
      "Ġ es",
      "it s",
      "Ġre ce",
      "ou t",
      "end iture",
      "Ġprov ide",
      "Ġapp l",
      "ast es",
      "Ġgo ods",
      "ĠServ ice",
      "i z",
      "n er",
      "Ġ2 8",
      "19 8",
      "Ġdire ct",
      "i an",
      "Ġt rib",
      "en tion",
      "it te",
      "Ġre as",
      "Ġare as",
      "Ġexp enditure",
      "per ty",
      "Ġdec la",
      "ĠMinist ers",
      "Ġfinanc ial",
      "e a",
      "t end",
      "ĠC eiling",
      "ĠP ART",
      "ĠI II",
      "om e",
      "Ġn ame",
      "ĠM ad",
      "ĠR aj",
      "Ġha ving",
      "Ġmak ing",
      "197 9",
      "enc es",
      "Ġwhe ther",
      "ĠProvis ions",
      "iti z",
      "r ation",
      "Ġa mend",
      "Ġs ix",
      "ĠS ec",
      "ĠC astes",
      "Ġm on",
      "ĠJ ustice",
      "Ġreserv ed",
      "is he",
      "ĠM iz",
      "Ġcon di",
      "und red",
      "por t",
      "ĠReg ional",
      "Ġman ner",
      "Ġup on",
      "Ġques tion",
      "Ġcondi tions",
      "at a",
      "al d",
      "Ġm od",
      "Ġm oney",
      "Ġ19 9",
      "Ġex ecu",
      "197 7",
      "ĠJud ges",
      "ĠPow er",
      "i k",
      "i har",
      "t al",
      "er e",
      "er ative",
      "Ġc itiz",
      "Ġ197 4",
      "Ġcon tain",
      "ĠForty second",
      "Ġpo st",
      "a in",
      "Ġto tal",
      "Ġc har",
      "ĠA nd",
      "Ġre mo",
      "ou nt",
      "ĠB ihar",
      "Ġtak en",
      "Ġaccord ance",
      "in e",
      "in ance",
      "ĠS ixth",
      "Ġ20 6",
      "Ġg ro",
      "Ġexerc ise",
      "Ġallow ances",
      "c rib",
      "p ri",
      "s o",
      "Ġp ay",
      "Ġw ere",
      "ĠI I",
      "Ġla ng",
      "ĠV ice",
      "ĠForty fourth",
      "Ġal so",
      "ricultu ral",
      "Ġlang u",
      "G eneral",
      "Ġ ra",
      "Ġm ore",
      "ir ty",
      "am il",
      "Ġsub s",
      "op erative",
      "anc y",
      "ĠX X",
      "ĠPanchay ats",
      "u al",
      "Ġs a",
      "Ġp ol",
      "Ġis s",
      "Ġins titu",
      "Ġbo th",
      "h ra",
      "an ts",
      "om in",
      "ĠO ne",
      "ĠMinist er",
      "Ġcas es",
      "Ġfur ther",
      "E N",
      "c es",
      "e t",
      "k h",
      "l f",
      "Ġthe y",
      "Ġd iss",
      "Ġprov ided",
      "19 6",
      "Ġsoc ie",
      "ishe d",
      "ĠAnd hra",
      "ĠA r",
      "an j",
      "Ġex c",
      "Ġad v",
      "iv il",
      "ang a",
      "ound ary",
      "h ip",
      "p res",
      "Ġa p",
      "in ess",
      "er g",
      "Ġf ar",
      "Ġfor m",
      "th s",
      "ĠH undred",
      "ĠCourt s",
      "Ġpar ty",
      "us iness",
      "Ġoper ation",
      "Ġconfer red",
      "i red",
      "w ay",
      "or am",
      "Ġc h",
      "Ġc or",
      "Ġappoint ment",
      "Ġco operative",
      "ĠNa du",
      "ĠMiz oram",
      "Ġ206 1979",
      "t c",
      "w n",
      "in th",
      "Ġp la",
      "ch ar",
      "Ġl ess",
      "Ġdis qual",
      "vel op",
      "Ġconsider ation",
      "l ish",
      "t ation",
      "v es",
      "Ġp ri",
      "Ġf a",
      "ic ial",
      "Ġe tc",
      "ĠT amil",
      "Ġ3 5",
      "Ġ196 9",
      "Ġrefer ence",
      "Ġdu ty",
      "ib ari",
      "Ġcourt s",
      "ĠSec ond",
      "i le",
      "Ġla nd",
      "ĠM a",
      "Ġreg ion",
      "Ġtrans fer",
      "Ġmon ths",
      "Ġlangu age",
      "H A",
      "Ġt er",
      "ĠA n",
      "le ction",
      "th ird",
      "if y",
      "ĠR igh",
      "ta b",
      "Ġcomm un",
      "Ġcons t",
      "Ġdis c",
      "enc ies",
      "ĠNo thing",
      "ens ion",
      "Ġsit ting",
      "Ġeduc ation",
      "lo y",
      "tt ar",
      "Ġexecu tive",
      "E S",
      "Ġthe ir",
      "re ed",
      "Ġp r",
      "ĠS C",
      "Ġc ivil",
      "Ġf irst",
      "Ġw e",
      "ou ld",
      "Ġd o",
      "ol ition",
      "ĠE igh",
      "un al",
      "Ġreg u",
      "ĠV I",
      "ard s",
      "Ġtax es",
      "Ġconstitu ted",
      "tro l",
      "Ġfollow ing",
      "Ġes tab",
      "velop ment",
      "Ġconst ru",
      "I S",
      "p lan",
      "ĠC om",
      "Ġre pres",
      "ĠI f",
      "ĠU ttar",
      "Ġde f",
      "od y",
      "ĠE nt",
      "Ġv ot",
      "Ġr u",
      "Ġpres crib",
      "ĠMunicipal ities",
      "Ġreas on",
      "Ġgro und",
      "plan ation",
      "L A",
      "P T",
      "o g",
      "Ġs ame",
      "Ġw ill",
      "Ġsu pp",
      "ĠT rans",
      "ĠN ational",
      "Ġ197 3",
      "ĠInd ian",
      "ess ion",
      "Ġ196 0",
      "Ġdecla red",
      "P resident",
      "l ong",
      "is ing",
      "is ition",
      "ent ral",
      "ĠC entral",
      "Ġ3 9",
      "ition al",
      "Ġwhe n",
      "Ġ198 6",
      "Ġag ree",
      "Ġ31 1977",
      "pos ition",
      "mp loy",
      "ĠVice President",
      "o res",
      "Ġ x",
      "Ġb usiness",
      "ĠA ud",
      "it al",
      "Ġwith out",
      "ter ation",
      "tic al",
      "Ġ197 2",
      "Ġnot withstanding",
      "Ġcons ul",
      "Ġl oc",
      "Ġpres ent",
      "Ġrecommend ations",
      "Ġadminist ration",
      "Ġclas ses",
      "e m",
      "p ers",
      "u ses",
      "is ion",
      "ĠC HA",
      "Ġf ill",
      "Ġpro perty",
      "ra c",
      "ĠH ald",
      "Ġon ly",
      "Ġ197 5",
      "Ġsub se",
      "Ġexp ress",
      "Ġ7 1",
      "II I",
      "Ġle v",
      "Ġ200 3",
      "Ġloc al",
      "ĠHald ibari",
      "Ġ k",
      "Ġf ore",
      "Ġw at",
      "ro ll",
      "Ġla id",
      "Ġres pective",
      "ĠN ag",
      "Ġde velopment",
      "op ulation",
      "Ġhe ld",
      "Ġle vel",
      "for m",
      "ash tra",
      "Ġcontin ue",
      "ĠMa har",
      "1 0",
      "h ata",
      "i tical",
      "ti t",
      "ent h",
      "ĠA l",
      "Ġd ated",
      "Ġpro t",
      "Ġpar tic",
      "ĠSub ject",
      "Ġthere in",
      "ĠProv in",
      "ĠComm itte",
      "ĠX V",
      "ĠReg ulation",
      "ĠPanchay at",
      "Ġappl ication",
      "Ġmod ifications",
      "Ġpol itical",
      "in hata",
      "at or",
      "Ġp opulation",
      "ĠA g",
      "Ġbe c",
      "Ġre port",
      "end ing",
      "eg hal",
      "ĠF if",
      "ĠD inhata",
      "qu isition",
      "ay a",
      "ul ar",
      "Ġv o",
      "Ġen tit",
      "Ġjud gment",
      "Ġtra de",
      "Ġmoney s",
      "char ge",
      "Ġrepres ent",
      "PT ER",
      "ĠMahar ashtra",
      "eghal aya",
      "Ġentit led",
      "h y",
      "k lig",
      "m u",
      "m erg",
      "ent y",
      "Ġc l",
      "la tions",
      "Ġre lig",
      "ĠT ax",
      "Ġ3 8",
      "Ġex tend",
      "du ct",
      "Ġprov id",
      "ter n",
      "ĠB od",
      "Ġspec ial",
      "ĠBill s",
      "Ġ200 0",
      "ĠMe klig",
      "Ġaff ir",
      "Ġappro pri",
      "Ġgiv en",
      "Ġamend ed",
      "Ġter m",
      "Ġconstru ed",
      "ĠCHA PTER",
      "ĠMeklig anj",
      "b olition",
      "e es",
      "k s",
      "s p",
      "u ance",
      "ti al",
      "Ġc ol",
      "ĠA ND",
      "ĠA bolition",
      "ot her",
      "ow n",
      "Ġspec ify",
      "197 2",
      "Ġag ain",
      "ib le",
      "ĠEx planation",
      "Ġass ent",
      "Ġgiv ing",
      "i i",
      "m ir",
      "u ed",
      "w ard",
      "Ġ ................................",
      "Ġthe m",
      "er ed",
      "Ġm in",
      "Ġbe long",
      "Ġe mploy",
      "ĠT en",
      "ĠH old",
      "ĠM eghalaya",
      "am ari",
      "Ġ20 19",
      "Ġartic les",
      "ĠE lection",
      "Ġv al",
      "ĠLegislat ures",
      "ĠJ am",
      "ach al",
      "ĠK ash",
      "Ġent ry",
      "hy a",
      "c c",
      "Ġo p",
      "or th",
      "ĠS ik",
      "Ġc ea",
      "ou n",
      "ĠB h",
      "ĠO mitted",
      "Ġcon n",
      "Ġ8 1",
      "eral a",
      "ĠK erala",
      "Ġrigh t",
      "ap ter",
      "ĠMad hya",
      "Ġpost s",
      "ĠJam mu",
      "ĠKash mir",
      "Ġcea se",
      "om en",
      "ĠM oney",
      "Ġ4 4",
      "ĠN orth",
      "Ġcon trol",
      "ĠCh apter",
      "Ġele ctions",
      "ĠX I",
      "Ġcom pe",
      "Ġtak e",
      "Ġdetermin ed",
      "Ġap peal",
      "merg ency",
      "oun ts",
      "g o",
      "g ed",
      "k im",
      "p ram",
      "u kh",
      "Ġc all",
      "Ġw or",
      "ct or",
      "ĠT ri",
      "res p",
      "Ġwh ile",
      "Ġme e",
      "Ġreg ard",
      "pu ra",
      "Ġam ount",
      "ĠAud itor",
      "ĠAl teration",
      "Ġpartic ular",
      "ĠAg ricultural",
      "ĠHold ings",
      "ĠSik kim",
      "pram ukh",
      "ĠTri pura",
      "1 2",
      "D U",
      "in c",
      "Ġc onstitution",
      "Ġw omen",
      "Ġd if",
      "Ġ19 4",
      "ĠB oundary",
      "ĠN ame",
      "Ġ20 2",
      "Ġde m",
      "HE DU",
      "Ġrefer ences",
      "Ġacc ounts",
      "Ġconstitu encies",
      "Ġrequ ired",
      "ĠOr der",
      "tra ct",
      "ĠAd minist",
      "ĠApp oint",
      "Ġname ly",
      "Ġcor resp",
      "ĠSC HEDU",
      "Ġcompe tent",
      "ĠAuditor General",
      "Ġcorresp ond",
      "ĠSCHEDU LE",
      "a re",
      "b ay",
      "Ġo b",
      "Ġf ig",
      "om bay",
      "il la",
      "il ity",
      "il ities",
      "Ġpro f",
      "ur r",
      "ĠB ombay",
      "Ġprovis o",
      "ĠE mergency",
      "iss a",
      "ĠCh h",
      "Ġac tion",
      "Ġno thing",
      "Ġreg ulation",
      "Ġpre vi",
      "ĠOr issa",
      "Ġbo ard",
      "vi le",
      "ĠRaj pramukh",
      "Ġremo val",
      "Ġinstitu tions",
      "Ġsocie ty",
      "Ġexpress ion",
      "Ġcorrespond ing",
      "Ġprevi ous",
      "R O",
      "e as",
      "u ng",
      "u gh",
      "ti s",
      "es ted",
      "Ġw ould",
      "la desh",
      "Ġor d",
      "le ment",
      "Ġres t",
      "19 9",
      "Ġso on",
      "Ġca use",
      "ĠLand s",
      "ang ladesh",
      "Ġpo s",
      "ath ab",
      "Ġab s",
      "Ġrece iv",
      "Ġcitiz ens",
      "Ġcontain ed",
      "Ġdiss olution",
      "Ġpla ce",
      "Ġwat er",
      "Ġrespective ly",
      "b le",
      "j or",
      "Ġp ubl",
      "Ġp ending",
      "ĠA R",
      "ĠP ill",
      "Ġre l",
      "Ġre m",
      "Ġre peal",
      "Ġma jor",
      "as th",
      "Ġterritor ial",
      "Ġrespect s",
      "Ġdis charge",
      "Ġse at",
      "Ġr en",
      "Ġdec ision",
      "Ġ21 1",
      "201 6",
      "Ġgr ant",
      "way s",
      "Ġmee ting",
      "illa ge",
      "ĠPill ar",
      "asth an",
      "I R",
      "j ar",
      "l i",
      "n ed",
      "Ġ lia",
      "er ce",
      "Ġb ody",
      "Ġp aid",
      "Ġp rac",
      "as tern",
      "Ġpro m",
      "ra gment",
      "ĠM athab",
      "ur ung",
      "Ġim p",
      "Ġim po",
      "Ġper form",
      "pt roll",
      "Ġpre vent",
      "onom ic",
      "Ġ201 6",
      "umber ed",
      "Ġday s",
      "Ġcomp r",
      "Ġsal aries",
      "Ġoffic ers",
      "Ġch o",
      "ĠCom ptroll",
      "ĠEnt ries",
      "Ġprescrib ed",
      "Ġcol le",
      "Ġagain st",
      "ĠBh urung",
      "ĠComptroll er",
      "ĠBhurung amari",
      "I n",
      "k ward",
      "u jar",
      "Ġin st",
      "Ġf ees",
      "Ġm o",
      "Ġm ention",
      "Ġbe ar",
      "ĠThe re",
      "ĠG ujar",
      "Ġres ign",
      "TI C",
      "ut e",
      "Ġcomm erce",
      "ix ation",
      "Ġdis p",
      "air s",
      "Ġ13 4",
      "ac kward",
      "Ġ195 0",
      "Ġqu al",
      "Ġ23 9",
      "Ġexce p",
      "ĠOr d",
      "ĠTh irty",
      "Ġgr ants",
      "Ġne w",
      "Ġtrib unal",
      "ĠRaj asthan",
      "Ġdisqual ified",
      "Ġagree ment",
      "Ġlev ied",
      "ĠProvin ce",
      "vile ges",
      "Ġren umbered",
      "n ing",
      "o k",
      "Ġc ar",
      "Ġd ra",
      "Ġan other",
      "ĠL a",
      "ĠF ragment",
      "ĠF ixation",
      "Ġv illage",
      "Ġj oint",
      "Ġ196 1",
      "ens us",
      "Ġent ries",
      "ven ue",
      "Ġrecommend ation",
      "Ġdetermin e",
      "Ġiss ued",
      "EN T",
      "ĠAr tic",
      "Ġestab lish",
      "Ġfig ures",
      "Ġmention ed",
      "ĠGujar at",
      "A T",
      "E astern",
      "O mitted",
      "r as",
      "r ator",
      "Ġc ensus",
      "ĠA c",
      "Ġd one",
      "ĠT w",
      "ĠI X",
      "tu r",
      "her ry",
      "mb ers",
      "Ġcon c",
      "ĠCouncil s",
      "istri b",
      "ord in",
      "Ġ198 7",
      "ĠChair pers",
      "Ġ16 9",
      "Ġrequ ire",
      "Ġii i",
      "ĠMunicipal ity",
      "LE S",
      "Ġclas s",
      "Ġcitiz en",
      "Ġchar ged",
      "ĠRigh ts",
      "Ġaffir mation",
      "ĠNorth Eastern",
      "Ġwor k",
      "l us",
      "t en",
      "Ġt e",
      "Ġo ver",
      "Ġa ge",
      "in ion",
      "Ġp ension",
      "ĠS u",
      "Ġf ive",
      "Ġw ay",
      "ro v",
      "Ġth irty",
      "Ġma in",
      "ĠF ourth",
      "ĠB angladesh",
      "ĠO ff",
      "Ġcla uses",
      "Ġjud icial",
      "ĠAd v",
      "Ġoper ate",
      "Ġhold ing",
      "Ġeduc ational",
      "ĠTerritor y",
      "ĠXX I",
      "Ġpri vileges",
      "Ġpr inc",
      "Ġregu lations",
      "em por",
      "Ġbec ome",
      "ĠTen ancy",
      "Ġop inion",
      "Ġ211 1972",
      "istrib u",
      "1 1",
      "E M",
      "N G",
      "P rov",
      "S t",
      "g is",
      "i ent",
      "n inth",
      "s en",
      "v ant",
      "x t",
      "Ġ end",
      "Ġt en",
      "Ġo ath",
      "Ġa rt",
      "al and",
      "ĠC o",
      "Ġf it",
      "la nd",
      "Ġan n",
      "Ġsu sp",
      "Ġ4 2",
      "Ġar is",
      "Ġg eneral",
      "our se",
      "Ġle gis",
      "Ġ201 1",
      "ign ed",
      "Ġwho le",
      "Ġdire ction",
      "Ġaccord ing",
      "Ġaff airs",
      "ĠTerritor ies",
      "198 7",
      "ĠMad ras",
      "Ġexc lud",
      "ĠNag aland",
      "Ġbelong ing",
      "Ġreceiv ed",
      "ĠAR TIC",
      "I nd",
      "O U",
      "a ti",
      "a ct",
      "a ve",
      "s ixth",
      "s pective",
      "t he",
      "Ġthe n",
      "in ing",
      "Ġb ackward",
      "Ġp lan",
      "Ġin qu",
      "it ation",
      "Ġre v",
      "Ġd es",
      "il d",
      "Ġn omin",
      "ri min",
      "du ced",
      "ĠN ine",
      "Ġ5 5",
      "Ġde t",
      "Ġac ting",
      "ip les",
      "Ġaf ores",
      "Ġdistrict s",
      "ĠW he",
      "Ġpay ment",
      "Ġsubs titu",
      "lf are",
      "Ġx x",
      "Ġconsul tation",
      "go ing",
      "Ġcall ed",
      "Ġdem and",
      "Ġord ers",
      "St ate",
      "Ġafores aid",
      "a pt",
      "c onomic",
      "y s",
      "Ġc ust",
      "ĠA ll",
      "ĠP RO",
      "Ġre le",
      "ic al",
      "ĠD omin",
      "ĠN inth",
      "am an",
      "ĠPro cedure",
      "ĠE very",
      "Ġ196 8",
      "Ġle t",
      "Ġinclud es",
      "Ġacc ount",
      "Ġag reed",
      "Ġ195 1",
      "Ġfin al",
      "Ġamendment s",
      "Ġ37 1",
      "Ġsal ary",
      "Ġpay able",
      "ĠEigh ty",
      "Ġru le",
      "ĠTrans fer",
      "Ġk n",
      "Ġfore going",
      "ĠCommitte e",
      "Ġdif fer",
      "tract s",
      "ĠAc quisition",
      "Ġ169 2016",
      "empor ary",
      "Prov ided",
      "ĠARTIC LES",
      "h i",
      "l ication",
      "es ts",
      "Ġf if",
      "ro ugh",
      "Ġre tro",
      "Ġd istribu",
      "ate ment",
      "Ġe conomic",
      "end ix",
      "du ction",
      "ĠF inance",
      "erv ation",
      "Ġcomm itte",
      "Ġ196 3",
      "Ġmembers hip",
      "te enth",
      "ĠAre a",
      "Ġst atement",
      "ĠCon tent",
      "ĠĠĠĠĠĠĠĠĠĠĠĠĠĠĠĠĠĠĠĠĠĠĠĠĠĠĠĠĠĠĠĠ ĠĠĠĠĠĠĠĠĠĠĠĠĠĠĠĠ",
      "ĠApp endix",
      "Ġvac ancy",
      "Ġvo ting",
      "Ġinst ru",
      "Ġexcep tions",
      "ĠLa w",
      "ĠNine ty",
      "Ġdet ention",
      "ĠDomin ion",
      "Ġretro spective",
      "ĠContent s",
      "a f",
      "h ib",
      "v our",
      "Ġb as",
      "Ġc eas",
      "ĠC ertain",
      "ĠA ng",
      "ĠP ri",
      "Ġn at",
      "Ġn ational",
      "Ġu sed",
      "ĠH in",
      "ĠGo a",
      "ĠD is",
      "Ġv ested",
      "Ġall ot",
      "Ġcons ist",
      "Ġl im",
      "Ġ196 6",
      "Ġele ctor",
      "ĠK ar",
      "age ment",
      "Ġint ro",
      "ĠAd d",
      "mo tion",
      "Ġfunc tion",
      "ĠApp lication",
      "Ġam ong",
      "Ġiss ue",
      "Ġcommun ity",
      "Ġvot es",
      "Ġsubse ction",
      "ĠTax es",
      "ĠBod a",
      "Ġval id",
      "Ġconn ection",
      "Ġabs ence",
      "Ġpubl ished",
      "Ġprinc iples",
      "I C",
      "a se",
      "d ra",
      "i u",
      "i ous",
      "u es",
      "u ch",
      "u ri",
      "Ġs ent",
      "or t",
      "ĠC la",
      "an a",
      "pe es",
      "ĠPar agraph",
      "ol ved",
      "Ġres p",
      "Ġwith dra",
      "Ġ4 1",
      "Ġcon te",
      "ĠPro perty",
      "Ġ5 7",
      "Ġcons isting",
      "Ġad apt",
      "Ġinc ident",
      "Ġreg ul",
      "Ġ198 4",
      "por ts",
      "Ġag ricultural",
      "Ġ201 5",
      "Ġproceed s",
      "ven tion",
      "Ġrece ip",
      "Ġtrib al",
      "Ġwe lfare",
      "Ġru pees",
      "Ġsupp ly",
      "Ġrepresent ation",
      "Ġprovid es",
      "ĠChh it",
      "Ġmajor ity",
      "Ġcompr ised",
      "ĠTw enty",
      "Ġsubstitu ted",
      "A L",
      "I T",
      "h a",
      "j ab",
      "j ust",
      "l hi",
      "p re",
      "ti g",
      "it ed",
      "ĠP un",
      "Ġre ad",
      "Ġre tur",
      "Ġth ree",
      "ĠĠĠĠ ĠĠ",
      "ra tive",
      "Ġh and",
      "ĠR est",
      "Ġ4 5",
      "ĠD aman",
      "ĠD iu",
      "Ġcon duct",
      "qu ent",
      "Ġ11 0",
      "Ġ196 2",
      "Ġcou ncil",
      "gan j",
      "Ġen for",
      "Ġtak es",
      "Ġsoc i",
      "Ġsoc ial",
      "ound aries",
      "ĠMe mbers",
      "Ġsa tis",
      "Ġsocie ties",
      "reed om",
      "Ġvot e",
      "ĠTrans itional",
      "Ġappropri ate",
      "Ġcho sen",
      "Ġdiffer ent",
      "Ġincident al",
      "ĠPun jab",
      "Ġsatis f",
      "I ONS",
      "f in",
      "re t",
      "or y",
      "ĠC ap",
      "Ġm ess",
      "Ġsu ms",
      "Ġth in",
      "ch an",
      "ce pt",
      "Ġu se",
      "Ġex tent",
      "TI V",
      "ag es",
      "ĠE st",
      "Ġha d",
      "Ġinclud e",
      "Ġinclud ed",
      "ĠDe lhi",
      "ĠX II",
      "Ġpas s",
      "Ġ201 4",
      "lig ible",
      "Ġinter est",
      "Ġdire ctions",
      "Ġexerc is",
      "Ġnotif ied",
      "Ġreserv ation",
      "Ġsal e",
      "ĠTh is",
      "Ġsa f",
      "196 3",
      "ves tig",
      "ĠRigh t",
      "Ġregu lating",
      "Ġsubse quent",
      "Ġrelig ious",
      "Ġ................................ ................",
      "ĠAppoint ment",
      "Ġnomin ated",
      "ĠAdd ed",
      "Ġresp ons",
      "pre tation",
      "O R",
      "e igh",
      "f ul",
      "t ection",
      "Ġ ro",
      "Ġa ffect",
      "en tial",
      "Ġs ay",
      "Ġs ession",
      "Ġb oundary",
      "ĠS ix",
      "Ġin vestig",
      "ĠA rt",
      "ĠP ond",
      "ment al",
      "ic herry",
      "ĠH im",
      "Ġex ceed",
      "ĠG a",
      "du c",
      "Ġ4 3",
      "ĠPro tection",
      "Ġ5 3",
      "Ġ5 6",
      "Ġinc ome",
      "Ġim position",
      "Ġ195 9",
      "Ġ200 6",
      "Ġst and",
      "ĠPow ers",
      "pos al",
      "Ġadd ition",
      "Ġadd itional",
      "Ġoffic er",
      "201 5",
      "Ġvac ant",
      "Ġdecla re",
      "Ġdiss olved",
      "ĠFif ty",
      "Ġrelig ion",
      "Ġpos s",
      "Ġlia b",
      "ĠMathab anga",
      "Ġconc er",
      "Ġrele vant",
      "af ter",
      "Ġsatisf ied",
      "ĠCap ital",
      "ĠPond icherry",
      "ĠHim achal",
      "N otwithstanding",
      "T AT",
      "T emporary",
      "V IS",
      "f ive",
      "i en",
      "k e",
      "l ies",
      "l ished",
      "ti m",
      "in al",
      "re at",
      "Ġs ta",
      "ĠS al",
      "ĠS TAT",
      "Ġto ge",
      "ic able",
      "an k",
      "Ġd iv",
      "Ġsu m",
      "ĠI V",
      "Ġn ear",
      "ĠH ill",
      "eg u",
      "ĠM an",
      "ur ation",
      "ĠR ul",
      "Ġme et",
      "Ġ197 0",
      "Ġ197 7",
      "Ġar ising",
      "Ġ5 2",
      "ll ed",
      "ĠGovernor s",
      "un achal",
      "vent y",
      "ĠSe e",
      "Ġle ave",
      "Ġauthor ise",
      "Ġauthor ities",
      "Ġ198 8",
      "oc i",
      "oc ate",
      "ĠCon tracts",
      "ĠTh ird",
      "200 4",
      "Ġappl icable",
      "Ġinstitu tion",
      "Ġfa ith",
      "ĠAn y",
      "ĠEigh th",
      "Ġestab lished",
      "Ġground s",
      "Ġfill ed",
      "Ġprot ection",
      "Ġemploy ment",
      "Ġrest ric",
      "Ġrel ates",
      "Ġcolle cted",
      "Ġcar ry",
      "ĠArtic le",
      "ten ance",
      "Ġexclud ing",
      "ĠPRO VIS",
      "Ġbas is",
      "Ġelector al",
      "TIV E",
      "Ġtoge ther",
      "ĠPROVIS IONS",
      "0 0",
      "5 1",
      "j ud",
      "z et",
      "Ġo pp",
      "ti v",
      "er ated",
      "Ġs ome",
      "at ak",
      "ĠS ur",
      "Ġc re",
      "Ġm ar",
      "Ġor ig",
      "ou rt",
      "le m",
      "ĠT u",
      "ĠĠĠĠ Ġ",
      "ce ment",
      "Ġpro por",
      "ur ity",
      "du st",
      "ĠB ans",
      "ĠR es",
      "ul g",
      "Ġoff ices",
      "iss ions",
      "Ġthere on",
      "Ġcons ent",
      "Ġ7 4",
      "Ġ7 9",
      "Ġim port",
      "Ġsec tions",
      "Ġinter ests",
      "Ġass igned",
      "ĠServ ices",
      "Ġoffic ial",
      "200 0",
      "Ġremo ved",
      "ĠAr unachal",
      "Ġadv ice",
      "ĠHundred th",
      "Ġeducation ally",
      "Ġfore ign",
      "Ġprovid ing",
      "Ġ................................ ................................",
      "Ġwater ways",
      "Ġprom ulg",
      "Ġimpo se",
      "Ġresign ation",
      "Ġqual ified",
      "ĠOrd inance",
      "ĠSu its",
      "Ġmain tenance",
      "rimin al",
      "ĠWhe re",
      "Ġvalid ity",
      "Ġreceip t",
      "Ġsaf egu",
      "Ġrespons ib",
      "ĠGa zet",
      "ĠSal aries",
      "Ġnear ly",
      "Ġpropor tion",
      "ĠGazet te",
      "E C",
      "a mental",
      "e l",
      "i tions",
      "k ata",
      "m or",
      "t o",
      "Ġo cc",
      "Ġa id",
      "in d",
      "en al",
      "or tu",
      "Ġp le",
      "Ġin d",
      "Ġin dust",
      "Ġc ourse",
      "ĠC l",
      "Ġw ar",
      "Ġw ri",
      "ro ve",
      "Ġre ports",
      "Ġsu r",
      "Ġth rough",
      "Ġe ar",
      "id ence",
      "Ġpro motion",
      "ri al",
      "Ġex ist",
      "ĠM ys",
      "ĠR E",
      "Ġ4 6",
      "Ġ197 9",
      "Ġ5 1",
      "Ġg ive",
      "Ġ11 7",
      "Ġcons e",
      "Ġac qu",
      "Ġ6 1",
      "tain ed",
      "ĠIn ter",
      "Ġse t",
      "ĠDe fin",
      "Ġ13 1",
      "Ġsec ond",
      "Ġsec urity",
      "Ġpre ced",
      "ĠFund s",
      "Ġinter State",
      "Ġ21 2",
      "Ġ18 6",
      "Ġtw enty",
      "Ġman agement",
      "Ġgo vern",
      "ĠProvis ion",
      "Ġadd ress",
      "Ġne ed",
      "Ġes tim",
      "Ġchar ge",
      "Ġap pe",
      "Ġcommun ication",
      "Ġdef in",
      "ĠCommitte es",
      "ĠXV I",
      "Ġvo id",
      "ĠBod o",
      "Ġob lig",
      "urr ent",
      "Ġestablish ment",
      "Ġkn own",
      "ĠLaw s",
      "ĠHin di",
      "Ġthin ks",
      "ke ts",
      "Ġopp ortu",
      "Ġwri ting",
      "ĠMys ore",
      "Ġopportu n",
      "F inance",
      "I N",
      "a ting",
      "i res",
      "m on",
      "n atak",
      "p tion",
      "s ses",
      "z ir",
      "re tion",
      "Ġp un",
      "it ment",
      "ons ist",
      "Ġd own",
      "Ġe qu",
      "id ing",
      "ĠAct s",
      "Ġn on",
      "ve y",
      "Ġwh om",
      "ĠGo ods",
      "ĠD u",
      "qu ential",
      "ess ions",
      "po sed",
      "Ġ11 2",
      "Ġthere to",
      "Ġ6 7",
      "Ġl ong",
      "Ġl ik",
      "Ġ24 6",
      "ĠSe venty",
      "Ġle ast",
      "Ġ198 9",
      "Ġ13 7",
      "Ġdec ree",
      "ru st",
      "ru itment",
      "Ġen um",
      "Ġ15 2",
      "ĠTrib unal",
      "Ġinter n",
      "Ġent ers",
      "Ġjud ge",
      "Ġappro val",
      "Ġques tions",
      "Ġcontin uance",
      "lo Ind",
      "ĠNa zir",
      "Ġdisc retion",
      "ĠEnt ry",
      "og n",
      "Ġpresent ed",
      "ĠXI V",
      "Ġrem ain",
      "Ġimp rove",
      "ĠChairpers on",
      "Ġsusp end",
      "Ġrev ok",
      "hib ition",
      "ĠAng loInd",
      "Ġnat ure",
      "ĠCla sses",
      "Ġregul ate",
      "ĠRest ric",
      "ganj a",
      "Ġsoci ally",
      "eigh th",
      "Ġconcer ned",
      "ĠBans kata",
      "Ġconse quential",
      "Ġappe ar",
      "Ġdefin ed",
      "natak a",
      "Ġlik e",
      "Ġenum erated",
      "ĠNazir ganja",
      "ĠAngloInd ian",
      "C E",
      "I G",
      "I ON",
      "R A",
      "T H",
      "g ress",
      "h anga",
      "i ting",
      "m olu",
      "t ak",
      "v a",
      "w ing",
      "Ġa ud",
      "Ġs p",
      "al s",
      "al th",
      "Ġp e",
      "ed eral",
      "Ġin for",
      "Ġc er",
      "Ġc red",
      "ar il",
      "it able",
      "Ġre venue",
      "se lf",
      "Ġsu cc",
      "Ġe ligible",
      "ch ase",
      "Ġsh ould",
      "il way",
      "Ġn or",
      "ĠM in",
      "ur al",
      "ĠF ederal",
      "ĠB oundaries",
      "Ġ4 7",
      "Ġ5 0",
      "Ġ5 4",
      "Ġ5 8",
      "Ġ5 10",
      "ect ed",
      "Ġg u",
      "Ġcomm on",
      "Ġac quisition",
      "und amental",
      "Ġl o",
      "197 0",
      "Ġat tend",
      "our ces",
      "20 19",
      "Ġ12 4",
      "Ġ195 5",
      "Ġdee m",
      "Ġst ru",
      "ĠĠĠĠĠĠĠĠĠĠĠĠĠĠĠĠĠĠĠĠĠĠĠĠĠĠĠĠĠĠĠĠ ĠĠĠĠĠĠĠĠĠĠĠĠĠĠĠĠĠĠĠĠĠĠĠĠĠĠĠĠĠĠĠĠĠĠĠĠĠĠĠĠĠĠĠĠĠĠĠĠ",
      "Ġrequ ires",
      "Ġ26 9",
      "ven ues",
      "Ġcomp le",
      "Ġ37 0",
      "Ġsa ve",
      "Ġch ild",
      "Ġdo es",
      "Ġmin or",
      "Ġ202 1987",
      "Ġcitizens hip",
      "Ġdra wn",
      "ĠCo de",
      "Ġann ual",
      "Ġaris es",
      "Ġplan ning",
      "Ġlet ters",
      "Ġenfor cement",
      "Ġmess age",
      "Ġpass ing",
      "Ġexercis able",
      "Ġpreced ing",
      "Ġpun ish",
      "aril y",
      "Ġ510 1963",
      "M ENT",
      "S ub",
      "f rom",
      "f irst",
      "h ab",
      "r ing",
      "s ion",
      "s uance",
      "u ments",
      "Ġt ill",
      "Ġa ir",
      "en ses",
      "Ġp ens",
      "Ġf ix",
      "Ġf ores",
      "Ġf ourt",
      "le g",
      "se venth",
      "ĠI N",
      "ĠI t",
      "Ġ19 3",
      "om es",
      "as ald",
      "Ġpro posed",
      "res sed",
      "eg r",
      "ĠM asald",
      "ĠG eneral",
      "Ġres ources",
      "ig anj",
      "ĠB ar",
      "ĠR ec",
      "Ġ4 0",
      "Ġ4 9",
      "Ġme as",
      "and um",
      "Ġsub st",
      "fer ence",
      "ut es",
      "Ġthere from",
      "Ġca p",
      "Ġ6 3",
      "Ġ6 4",
      "Ġ6 5",
      "Ġ6 9",
      "Ġexp ed",
      "Ġpur chase",
      "Ġpur suance",
      "iv ers",
      "Ġdis posal",
      "Ġreg ist",
      "Ġreg ional",
      "ĠCommission er",
      "Ġserv ing",
      "Ġse par",
      "Ġle gal",
      "Ġ198 0",
      "Ġ12 7",
      "Ġ12 1977",
      "ens ang",
      "Ġins er",
      "Ġ201 8",
      "Ġint egr",
      "Ġone third",
      "Ġexpir y",
      "Ġhold s",
      "Ġadminist rator",
      "Ġappro ving",
      "Ġtra ining",
      "Ġ36 8",
      "ĠTerritor ial",
      "198 5",
      "Ġreas ons",
      "Ġra ilway",
      "Ġexc lus",
      "Ġconn ected",
      "Ġappeal s",
      "Ġ194 8",
      "ĠAdminist rative",
      "ĠAppoint ments",
      "Ġprof it",
      "Ġinqu ir",
      "Ġdistribu tion",
      "Ġcommitte es",
      "ĠDis qual",
      "Ġfunction ing",
      "Ġsent ence",
      "Ġread just",
      "Ġliab ilities",
      "ĠRes ervation",
      "Ġimport ance",
      "Ġsafegu ards",
      "mor andum",
      "ĠBodo land",
      "Sub ject",
      "Ġpens ions",
      "Ġfourt een",
      "ĠMasald anga",
      "2 6",
      "F or",
      "G EN",
      "N ION",
      "e la",
      "l ar",
      "m ission",
      "p s",
      "p ol",
      "s ide",
      "Ġ ve",
      "Ġo wn",
      "er ve",
      "en ting",
      "or por",
      "Ġ1 19",
      "Ġc op",
      "ĠA utonomous",
      "ar ch",
      "Ġw r",
      "Ġor ganisation",
      "Ġre venues",
      "Ġd oc",
      "Ġsu its",
      "Ġe molu",
      "Ġfor ms",
      "id ual",
      "ri g",
      "ĠH ary",
      "ng lish",
      "ĠĠĠĠĠĠĠĠ ĠĠ",
      "Ġwh ol",
      "Ġme an",
      "ĠU NION",
      "Ġsub mitted",
      "Ġsub ordin",
      "ĠE nglish",
      "Ġoff ences",
      "ff ic",
      "Ġhe alth",
      "Ġall oc",
      "Ġcons um",
      "Ġ6 6",
      "Ġi v",
      "ĠRe venue",
      "Ġj ustice",
      "iv idual",
      "197 1",
      "Ġreg ions",
      "ĠAssemb lies",
      "Ġserv ants",
      "Ġrec ords",
      "Ġrec ogn",
      "Ġout side",
      "Ġfur n",
      "Ġsix ty",
      "Ġ199 2",
      "196 0",
      "Ġdisc us",
      "Ġsupp lement",
      "ĠXV III",
      "Ġrepeal ed",
      "Ġprac tice",
      "Ġlegis lation",
      "Ġallot ted",
      "ĠKar nataka",
      "Ġintro duced",
      "Ġwithdra w",
      "Ġadapt ations",
      "Ġsta ff",
      "ĠTu ensang",
      "Ġind ividual",
      "Ġthrough out",
      "Ġmeas ures",
      "Ġexped ient",
      "Ġsepar ate",
      "ĠHary ana",
      "Ġsubordin ate",
      "C h",
      "E A",
      "E very",
      "F undamental",
      "N o",
      "U A",
      "a v",
      "a cted",
      "b an",
      "e th",
      "n ly",
      "r ban",
      "ti eth",
      "Ġs c",
      "or um",
      "Ġin v",
      "Ġin val",
      "ĠA tt",
      "ĠA IR",
      "ar an",
      "it an",
      "Ġm y",
      "Ġan im",
      "se ts",
      "ĠT enth",
      "ĠĠĠĠ ĠĠĠ",
      "Ġas sets",
      "Ġla st",
      "ver ed",
      "ot e",
      "ĠM ay",
      "ĠF reedom",
      "19 51",
      "ĠO ath",
      "Ġunder tak",
      "Ġ4 8",
      "ting ency",
      "Ġ5 9",
      "Ġde li",
      "Ġso lem",
      "Ġv ary",
      "Ġ6 0",
      "Ġinc onsist",
      "Ġexp enses",
      "ĠGovernment s",
      "ĠV s",
      "Ġele ct",
      "te en",
      "Ġ24 1970",
      "Ġauthor ised",
      "ĠFor m",
      "Ġ198 1",
      "Ġrec ruitment",
      "Ġ12 6",
      "Ġ16 2",
      "Ġpre par",
      "Ġqu orum",
      "Ġ10 8",
      "tif ic",
      "Ġconstitu te",
      "tro pol",
      "ĠMe tropol",
      "Ġgro up",
      "Ġcor por",
      "Ġappropri ation",
      "li er",
      "Ġdisp ute",
      "Ġdisp utes",
      "Ġtribunal s",
      "Ġjoint ly",
      "ĠChairpers ons",
      "Ġconte xt",
      "Ġretur n",
      "Ġsubsequent ly",
      "ful ly",
      "ĠSix ty",
      "ĠSTAT ES",
      "ĠHill s",
      "ĠMan ip",
      "ĠRul er",
      "Ġcarry ing",
      "Ġear lier",
      "ĠInter pretation",
      "Ġ186 1951",
      "Ġoblig ations",
      "ĠDu ties",
      "Ġinfor mation",
      "Ġsubst an",
      "Ġintegr ity",
      "Ġcop y",
      "Ġconsum ption",
      "Ġdiscus sion",
      "Ġinval id",
      "Ġsolem nly",
      "ĠMetropol itan",
      "2 1",
      "A NG",
      "S pecial",
      "b e",
      "c urrent",
      "f ic",
      "f if",
      "i o",
      "m ary",
      "r en",
      "w ear",
      "Ġ 0",
      "Ġ roll",
      "he ver",
      "Ġs wear",
      "or s",
      "or ne",
      "Ġp eople",
      "Ġp enal",
      "Ġc and",
      "Ġc riminal",
      "ar ied",
      "Ġm ig",
      "Ġm unicipal",
      "ic y",
      "Ġd uration",
      "ĠT O",
      "tu e",
      "ĠH a",
      "ir tue",
      "ĠĠĠĠĠĠĠĠ ĠĠĠ",
      "im um",
      "ĠGo d",
      "Ġme morandum",
      "ag ar",
      "Ġcla im",
      "Ġwhic hever",
      "Ġv ide",
      "Ġv aried",
      "Ġv irtue",
      "ĠJ oint",
      "Ġ11 3",
      "Ġhe re",
      "ĠComm issions",
      "ĠRe lating",
      "anc ies",
      "197 5",
      "ĠV III",
      "ie w",
      "Ġ24 4",
      "Ġ198 2",
      "Ġ12 9",
      "Ġcou nt",
      "ĠJud icial",
      "oc ol",
      "Ġsec ure",
      "Ġpre ven",
      "Ġpre jud",
      "Ġdu ly",
      "Ġen act",
      "Ġal ong",
      "Ġpres ide",
      "Ġ18 8",
      "Ġexerc ised",
      "qual ity",
      "Ġ22 6",
      "Ġadd ressed",
      "200 3",
      "Ġtwo third",
      "Ġact s",
      "Ġne t",
      "Ġvac ancies",
      "Ġ25 1",
      "Ġfollow ed",
      "mp tion",
      "ea vour",
      "Ġmod ification",
      "Ġfa vour",
      "Ġprescrib e",
      "ĠNag ar",
      "Ġprot ocol",
      "ĠProvin ces",
      "ĠFif th",
      "Ġaffir m",
      "Ġlia ble",
      "ĠMathab hanga",
      "ĠOff ic",
      "Ġend eavour",
      "Ġaris en",
      "Ġaccording ly",
      "Ġcust om",
      "Ġcust ody",
      "Ġceas ed",
      "Ġlim its",
      "Ġexceed ing",
      "oci ation",
      "Ġrestric tions",
      "Ġple as",
      "IG H",
      "Ġlo ans",
      "Ġfix ed",
      "ivers ity",
      "Ġemolu ments",
      "Ġwhol ly",
      "Ġrecogn ised",
      "UA G",
      "Ġinconsist ent",
      "fic ul",
      "Ġcand id",
      "Ġtwothird s",
      "B L",
      "C Y",
      "P ar",
      "T S",
      "a pp",
      "b and",
      "b ari",
      "b iganj",
      "c k",
      "e ign",
      "g n",
      "h ic",
      "l im",
      "o ch",
      "s h",
      "u g",
      "v y",
      "y General",
      "Ġt able",
      "Ġo il",
      "Ġa de",
      "Ġs im",
      "Ġb rac",
      "al a",
      "Ġp ea",
      "Ġ1 20",
      "Ġc an",
      "ĠC OU",
      "ar c",
      "Ġf und",
      "Ġre ti",
      "Ġth ous",
      "ĠI m",
      "ve mber",
      "Ġla kh",
      "ver eign",
      "ist r",
      "ĠO ther",
      "ĠPro hibition",
      "qu ate",
      "Ġde ath",
      "Ġpar ts",
      "Ġso vereign",
      "ĠE le",
      "Ġthere up",
      "Ġthere for",
      "Ġac tiv",
      "197 8",
      "tain ing",
      "Ġ7 3",
      "ĠV ac",
      "cla use",
      "Ġauthor ising",
      "ĠDe biganj",
      "Ġ8 3",
      "Ġ13 3",
      "ĠNo vember",
      "Ġ12 3",
      "oc ates",
      "ac ilities",
      "ĠK h",
      "Ġ9 9",
      "Ġen acted",
      "ric ity",
      "ER GEN",
      "ĠCon duct",
      "ĠCon tingency",
      "ĠCon current",
      "vel i",
      "Ġ26 8",
      "ĠEx tra",
      "Ġ30 5",
      "Ġsubcla uses",
      "Ġdetermin ation",
      "Ġadminist ered",
      "Ġappro ved",
      "pos ing",
      "Ġadd ed",
      "Ġcas te",
      "Ġ32 4",
      "Ġrece ive",
      "ĠSec ret",
      "ĠMiz o",
      "Ġ199 5",
      "Ġra ce",
      "ĠXX X",
      "Ġadv ance",
      "Ġadv ise",
      "erg er",
      "Ġpri mary",
      "Ġtransfer red",
      "ĠCom position",
      "Ġbec omes",
      "Ġ194 9",
      "ĠAdminist rator",
      "Ġmo ve",
      "Ġmo ved",
      "Ġqual ifications",
      "Ġcar ri",
      "ĠArtic les",
      "ĠIX A",
      "Ġfif teen",
      "Ġamong st",
      "chan ge",
      "Ġ................................................ ....",
      "Ġposs ible",
      "Ġsur vey",
      "Ġacqu ired",
      "Ġestim ates",
      "Ġintern ational",
      "Ġgu aran",
      "Ġattend ance",
      "Ġstru ck",
      "Ġinquir y",
      "ĠDisqual ifications",
      "Ġalloc ation",
      "Ġinv ol",
      "ĠAtt orne",
      "ĠManip ur",
      "Ġsubstan tial",
      "fif th",
      "hic les",
      "Ġade quate",
      "Ġpea ce",
      "Ġthous and",
      "Ġsovereign ty",
      "Ġthereup on",
      "ĠVac ation",
      "ERGEN CY",
      "Ġguaran te",
      "ĠAttorne yGeneral",
      "2 4",
      "7 1",
      "E ND",
      "G IS",
      "P U",
      "T Y",
      "b i",
      "b t",
      "b our",
      "c tive",
      "i ence",
      "i ance",
      "k uch",
      "m un",
      "n ical",
      "o b",
      "p se",
      "r ant",
      "u man",
      "y st",
      "y der",
      "y ond",
      "Ġ ens",
      "in ances",
      "in tend",
      "er ing",
      "at t",
      "or tion",
      "or og",
      "ent s",
      "ĠS a",
      "ĠS ital",
      "Ġc ent",
      "Ġc ot",
      "ĠP re",
      "la in",
      "Ġbe yond",
      "Ġd er",
      "Ġe v",
      "Ġe ff",
      "ch nical",
      "Ġ19 0",
      "Ġ19 2",
      "il ar",
      "Ġpro duction",
      "Ġh uman",
      "Ġu ph",
      "ĠH yder",
      "Ġla bour",
      "ir c",
      "ir ing",
      "ol un",
      "TI ONS",
      "ec tive",
      "ter ed",
      "ĠD ad",
      "ĠD ire",
      "Ġcon t",
      "Ġcon tract",
      "ĠUn iversity",
      "ll s",
      "Ġg en",
      "Ġoff ence",
      "Ġv est",
      "Ġv olun",
      "Ġ11 4",
      "Ġ11 8",
      "Ġthere after",
      "ab ad",
      "Ġl i",
      "Ġl ic",
      "Ġl ie",
      "197 3",
      "Ġim posing",
      "air pers",
      "Ġr ates",
      "Ġ8 2",
      "Ġ12 1",
      "Ġ12 5",
      "eral s",
      "Ġsec uring",
      "Ġ16 10",
      "Ġcom position",
      "Ġdec lar",
      "Ġ9 6",
      "Ġ9 7",
      "ĠForty third",
      "Ġ195 4",
      "Ġ14 1",
      "Ġ15 3",
      "Ġ15 9",
      "Ġ15 1960",
      "Ġ10 2",
      "Ġal leg",
      "ign ment",
      "Ġent ered",
      "Ġ23 1",
      "Ġ23 3",
      "ER N",
      "Ġ18 9",
      "ĠCon tin",
      "ĠAss ociation",
      "Ġrecommend ed",
      "Ġappoint ments",
      "Ġcomp lain",
      "Ġcas ual",
      "Ġsit u",
      "201 4",
      "200 2",
      "ecu tive",
      "ricultu re",
      "Ġtrib es",
      "Ġ199 0",
      "ĠVice Ch",
      "Ġexc ess",
      "Ġadv ocate",
      "Ġfa il",
      "Ġpr orog",
      "Ġreason able",
      "ii i",
      "Ġdif ficul",
      "ĠAdminist ration",
      "Ġabs ent",
      "Ġprac tic",
      "Ġperform ance",
      "Ġbear s",
      "Ġ134 1978",
      "ĠOrd inances",
      "ordin ary",
      "ĠOff icial",
      "ĠAdv ocates",
      "Ġsusp ension",
      "Ind ia",
      "OU S",
      "Ġdistribu ted",
      "Ġcommitte e",
      "Ġinstru ment",
      "ĠPri me",
      "ĠEst ates",
      "Ġro ad",
      "Ġsum mon",
      "Ġorig inal",
      "Ġpromulg ate",
      "Ġresponsib ility",
      "Ġwar rant",
      "Ġ212 2002",
      "Ġopportun ity",
      "Ġlong er",
      "Ġimprove ment",
      "ĠRestric tion",
      "Ġregist ered",
      "Ġexclus ive",
      "Ġwr its",
      "Ġwithdraw al",
      "Ġelect ricity",
      "ĠHa veli",
      "Ġprejud ice",
      "Ġsim ilar",
      "Ġbrac kets",
      "ĠExtra ordinary",
      "GIS LA",
      "kuch i",
      "intend ence",
      "ĠSital kuchi",
      "Ġcot t",
      "Ġeff ective",
      "Ġuph old",
      "ĠHyder abad",
      "ĠDad ra",
      "Ġvolun t",
      "airpers on",
      "Ġalleg iance",
      "ĠViceCh airperson",
      "6 6",
      "A N",
      "E OUS",
      "I X",
      "L LA",
      "M IS",
      "N EOUS",
      "O V",
      "R E",
      "R ec",
      "c ourse",
      "e x",
      "g ar",
      "h old",
      "h ile",
      "i la",
      "i ra",
      "m es",
      "m iss",
      "m pt",
      "o od",
      "u duc",
      "Ġ est",
      "Ġt ru",
      "Ġt reat",
      "Ġt rial",
      "he n",
      "Ġa er",
      "on ment",
      "ti tion",
      "in aid",
      "er ally",
      "re ad",
      "Ġs pe",
      "Ġs peak",
      "Ġs yst",
      "Ġb or",
      "Ġb ir",
      "is ions",
      "is ory",
      "es ty",
      "ĠS ection",
      "Ġto lls",
      "ĠC O",
      "ĠC ond",
      "ĠA p",
      "ĠA ug",
      "Ġf reedom",
      "Ġf acilities",
      "ĠP ers",
      "ĠP ak",
      "ĠP lan",
      "Ġbe low",
      "Ġre pu",
      "Ġan c",
      "Ġfor th",
      "Ġfor ty",
      "end er",
      "Ġpro per",
      "Ġh undred",
      "ĠL ang",
      "Ġu rban",
      "ĠH is",
      "Ġex am",
      "if e",
      "ĠM aj",
      "ur ance",
      "Ġres olu",
      "ĠF ore",
      "ec ting",
      "ĠB usiness",
      "ĠD hab",
      "ĠUn til",
      "Ġde bt",
      "ess or",
      "ul t",
      "Ġv i",
      "ĠJ urisdiction",
      "IA L",
      "Ġ11 5",
      "Ġinc re",
      "Ġexp ort",
      "Ġj ute",
      "Ġl ine",
      "Ġl ife",
      "Ġ196 4",
      "197 4",
      "ĠCommission ers",
      "ĠFor ces",
      "Ġ198 5",
      "Ġ8 7",
      "Ġ13 2",
      "Ġ13 6",
      "Ġrec ord",
      "Ġ12 2",
      "Ġsec ret",
      "Ġprovision al",
      "Ġdu e",
      "Ġ31 7",
      "Ġ31 10",
      "Ġen g",
      "Ġtax ation",
      "Ġ195 2",
      "Ġ14 3",
      "ĠTrib al",
      "Ġ200 1",
      "Ġint ention",
      "Ġinter mediate",
      "Ġsubparagraph s",
      "Ġ18 1979",
      "Ġconstitu ency",
      "Ġ26 4",
      "Ġ26 2014",
      "Ġass ist",
      "Ġconsid ers",
      "Ġ27 9",
      "Ġsit s",
      "200 6",
      "Ġab olition",
      "198 8",
      "Ġ199 1",
      "Ġexecu ted",
      "Ġlangu ages",
      "Ġsubs crib",
      "ĠXX V",
      "Ġpol icy",
      "Ġdisqual ification",
      "Ġdisqual ifications",
      "Ġcommun ities",
      "ĠAud it",
      "Ġ71 2004",
      "Ġwat ers",
      "Ġprot ect",
      "ĠFif teenth",
      "ĠXI X",
      "Ġconstitution al",
      "Ġpubl ication",
      "Ġrem un",
      "ĠThirty sixth",
      "Ġgrants inaid",
      "Ġte xt",
      "Ġte chnical",
      "ĠAdv ocate",
      "ĠAdv isory",
      "EM ERGENCY",
      "Ġann u",
      "ati ves",
      "Ġdes ira",
      "Ġxx x",
      "Ġlet ter",
      "Ġfif ty",
      "Ġceas es",
      "Ġallot ment",
      "Ġwithdra wn",
      "IT OR",
      "Ġretur ned",
      "Ġcre ation",
      "Ġocc urr",
      "ĠRE LA",
      "ĠDefin ition",
      "Ġneed s",
      "CE LLA",
      "Ġchild ren",
      "Ġfores t",
      "Ġreadjust ment",
      "Ġve hicles",
      "Ġdoc uments",
      "Ġundertak en",
      "Ġprepar ation",
      "Ġmig r",
      "Ġpleas ure",
      "UAG E",
      "lim itation",
      "ĠCOU RT",
      "Ġactiv ities",
      "Ġadvance ment",
      "Ġcarri ed",
      "Ġsurvey ed",
      "mun ities",
      "att le",
      "Ġli qu",
      "Ġ1610 2015",
      "ĠContin uance",
      "Rec ord",
      "uduc herry",
      "Ġtru e",
      "ĠCond itions",
      "ĠAug ust",
      "ĠPlan ning",
      "Ġrepu gn",
      "Ġforth with",
      "ĠLang u",
      "ĠMaj esty",
      "Ġresolu tions",
      "ĠFore ign",
      "Ġ3110 2019",
      "ĠAdvocate General",
      "CELLA NEOUS",
      "4 4",
      "A A",
      "A R",
      "E x",
      "S erv",
      "T RA",
      "W E",
      "c o",
      "e mption",
      "f act",
      "i or",
      "p a",
      "p ur",
      "p te",
      "p lus",
      "r id",
      "t ension",
      "u fact",
      "Ġ ir",
      "Ġt it",
      "er ation",
      "Ġs che",
      "Ġs anc",
      "Ġs igned",
      "al c",
      "al ent",
      "ĠS P",
      "ĠS U",
      "Ġc irc",
      "ĠC onstitu",
      "ĠA P",
      "ar ing",
      "it e",
      "Ġf ree",
      "Ġm en",
      "ĠP r",
      "ĠP ol",
      "la ining",
      "ro wing",
      "Ġ2 20",
      "ic ally",
      "ons id",
      "Ġsu per",
      "ĠT ra",
      "ĠT ela",
      "Ġfor ces",
      "ĠI nc",
      "ce p",
      "end ed",
      "Ġh igh",
      "Ġla pse",
      "ist an",
      "ĠG ar",
      "ur red",
      "ng ana",
      "st s",
      "st ances",
      "ĠB E",
      "ĠB e",
      "ĠR ules",
      "ow led",
      "ĠN ow",
      "ting u",
      "Ġar res",
      "Ġ20 4",
      "Ġde tained",
      "Ġde limitation",
      "od rom",
      "ect or",
      "ĠE X",
      "Ġv oc",
      "ak er",
      "ĠSub clause",
      "Ġac cept",
      "Ġac cep",
      "Ġinc urred",
      "Ġexp laining",
      "ab lish",
      "ab ility",
      "Ġno tice",
      "iv alent",
      "Ġdis char",
      "Ġdis app",
      "Ġ7 2",
      "Ġ7 5",
      "Ġ7 8",
      "ie ld",
      "ĠSe ats",
      "ĠSe pte",
      "ĠDe v",
      "Ġ8 0",
      "Ġ8 4",
      "Ġ13 5",
      "Ġrec onsid",
      "Ġacc ru",
      "pu ting",
      "Ġag gress",
      "Ġag riculture",
      "Ġ16 4",
      "Ġcom puting",
      "ac ity",
      "Ġen v",
      "ĠW ards",
      "Ġ14 8",
      "Ġ15 5",
      "Ġ10 9",
      "Ġal teration",
      "Ġri ver",
      "Ġinter pretation",
      "Ġinter course",
      "Ġwho se",
      "Ġ21 7",
      "Ġ23 2",
      "Ġ23 6",
      "ĠCon trol",
      "ĠĠĠĠĠĠĠĠĠĠĠĠĠĠĠĠĠĠĠĠĠĠĠĠĠĠĠĠĠĠĠĠ ĠĠĠĠĠĠĠĠĠĠĠĠĠĠĠĠĠĠĠĠĠĠĠĠĠĠĠĠĠĠĠĠ",
      "um stances",
      "ĠEx emption",
      "Ġ30 1",
      "Ġcomp an",
      "Ġ34 2",
      "Ġtrans mitted",
      "Ġoffic io",
      "Ġ32 3",
      "Ġ32 9",
      "Ġconfer ring",
      "Ġconsider ed",
      "Ġamend ing",
      "Ġcontain ing",
      "Ġchar ges",
      "Ġdisc rimin",
      "Ġwe aker",
      "ĠXV II",
      "Ġcl s",
      "Ġextend s",
      "Ġassent ed",
      "Ġval ue",
      "Ġprof essions",
      "Ġsoon er",
      "Ġmeeting s",
      "Ġprom ote",
      "Ġimp lement",
      "Ġcho ose",
      "Ġ134 2015",
      "Ġrequire ments",
      "11 2000",
      "Ġinqu ire",
      "Ġrev iew",
      "ĠWhe n",
      "ĠEighty fourth",
      "Ġconte mpt",
      "ĠEst ablish",
      "Ġ................................................ ........",
      "Ġinvestig ate",
      "Ġfaith fully",
      "00 0",
      "Ġorig in",
      "Ġpromulg ated",
      "Ġresponsib ilities",
      "ĠDefin itions",
      "Ġequ ivalent",
      "Ġminor ities",
      "Ġpunish ment",
      "Ġinser t",
      "orpor ation",
      "Ġmean ing",
      "Ġfurn ish",
      "Ġsupplement al",
      "Ġdeli vered",
      "Ġvary ing",
      "Ġpreven tive",
      "ĠOffic ers",
      "Ġ305 1987",
      "Ġens ure",
      "ĠSa ving",
      "ĠPre vention",
      "Ġder og",
      "Ġev idence",
      "ĠAdvocates on",
      "GISLA TIVE",
      "Ġtreat y",
      "Ġaer odrom",
      "Ġsyst em",
      "ĠPers ons",
      "ĠPak istan",
      "Ex planation",
      "Serv ices",
      "rid ges",
      "ufact ure",
      "Ġsche mes",
      "Ġcirc umstances",
      "Ġsuper intendence",
      "ĠTela ngana",
      "Ġdisapp ro",
      "ĠSepte mber",
      "Ġaggress ion",
      "I t",
      "P ER",
      "P uducherry",
      "Q ual",
      "S T",
      "T WE",
      "U n",
      "b y",
      "b it",
      "c ertain",
      "e mploy",
      "e ks",
      "f t",
      "g uri",
      "g istr",
      "h ol",
      "l t",
      "n ot",
      "n ess",
      "o ol",
      "s ix",
      "Ġ .",
      "Ġ il",
      "Ġ Qual",
      "Ġt re",
      "Ġa va",
      "Ġof ten",
      "ti a",
      "en ed",
      "Ġs an",
      "Ġs te",
      "Ġb rough",
      "al e",
      "al id",
      "es ting",
      "Ġp red",
      "Ġp ort",
      "ĠS oc",
      "Ġin e",
      "Ġin f",
      "Ġto wn",
      "Ġc attle",
      "ĠC ro",
      "ĠC ON",
      "ĠC ach",
      "ĠC alc",
      "ĠA t",
      "Ġf our",
      "Ġm il",
      "Ġm ul",
      "Ġw ord",
      ".. .",
      "Ġre mit",
      "Ġre duction",
      "Ġ2 19",
      "Ġd en",
      "le gal",
      "Ġth ings",
      "Ġth reat",
      "Ġfor med",
      "Ġma gistr",
      "Ġas certain",
      "Ġpro pe",
      "Ġpro duct",
      "Ġpro hib",
      "Ġpro gress",
      "ĠL E",
      "ĠL X",
      "ĠL y",
      "Ġex tern",
      "ĠM ar",
      "ĠG OV",
      "ur b",
      "Ġres ident",
      "Ġres idence",
      "TI ES",
      "ĠĠĠĠĠĠĠĠ ĠĠĠĠ",
      "ĠD a",
      "ĠD ec",
      "ĠD ak",
      "ĠD uring",
      "ĠD uration",
      "ĠN al",
      "Ġme chan",
      "ĠInd ust",
      "Ġcon ting",
      "Ġcon ven",
      "Ġ20 3",
      "Ġde p",
      "fer red",
      "ĠE n",
      "po se",
      "ĠJ un",
      "Ġ11 6",
      "Ġcomm ute",
      "Ġhe ad",
      "Ġall India",
      "Ġcons ignment",
      "Ġad op",
      "Ġ6 2",
      "Ġ6 8",
      "Ġl ist",
      "Ġmak es",
      "iv ing",
      "Ġmat er",
      "Ġdis ad",
      "Ġdis pose",
      "us ed",
      "Ġ7 6",
      "Ġper for",
      "Ġse x",
      "Ġse al",
      "Ġ24 9",
      "Ġ8 5",
      "Ġ8 6",
      "Ġ8 8",
      "Ġ8 9",
      "Ġ13 9",
      "por ted",
      "The re",
      "oc k",
      "ac cept",
      "Ġpre vention",
      "Ġpre va",
      "Ġ9 2",
      "Ġ9 5",
      "Ġ9 8",
      "ĠForty ninth",
      "Ġen cla",
      "Ġen able",
      "ĠW hile",
      "Ġ195 3",
      "Ġ195 7",
      "Ġ14 5",
      "Ġ14 1985",
      "Ġ15 8",
      "Ġal read",
      "tif ies",
      "Ġinter ference",
      "Ġent ertain",
      "Ġent rust",
      "Ġ23 0",
      "Ġst ri",
      "Ġjud ges",
      "Ġ17 0",
      "Ġ17 1",
      "Ġman ufacture",
      "Ġ30 3",
      "Ġed ge",
      "Ġcomp ens",
      "Ġ22 9",
      "ecess or",
      "Ġ34 8",
      "Ġadminist rative",
      "Ġaff ecting",
      "Ġhim self",
      "Ġ27 2",
      "Ġco sts",
      "Ġtra des",
      "Ġ36 3",
      "Ġgr an",
      "tt lement",
      "Ġne ither",
      "Ġ25 0",
      "Ġ33 2",
      "198 6",
      "Ġdirect ors",
      "Ġmoney l",
      "196 9",
      "Ġpla ces",
      "Ġ35 0",
      "Ġland s",
      "Ġdisc o",
      "Ġsitting s",
      "Ġconsul t",
      "Ġlev y",
      "Ġk e",
      "ator y",
      "Ġcol lection",
      "Ġmin eral",
      "Ġemploy ments",
      "ĠTen ure",
      "Ġcall ings",
      "Ġdem arc",
      "Ġprevious ly",
      "ugh t",
      "199 5",
      "Ġpos ting",
      "Ġrel ate",
      "IR ST",
      "ĠIX B",
      "Ġwork ing",
      "vant age",
      "Ġexclud e",
      "Ġinstru ction",
      "ĠNinety ninth",
      "ĠAng long",
      "Ġnat ural",
      "ĠKar bi",
      "Ġadapt ation",
      "Ġ110 2006",
      "Ġcouncil s",
      "ĠSur plus",
      "Ġ79 2003",
      "Ġindust rial",
      "Ġtwenty five",
      "Ġopportun ities",
      "Ġnon accept",
      "Ġrevok ed",
      "Ġsp ent",
      "Ġcred it",
      "Ġsucc ession",
      "Ġsucc essor",
      "Ġcomple ted",
      "Ġ193 5",
      "Ġanim al",
      "Ġcorpor ations",
      "Ġroll s",
      "Ġcount ry",
      "Ġcandid ate",
      "BL IC",
      "Par liament",
      "Ġcan not",
      "ĠEle ctions",
      "ĠSecret ary",
      "Ġpractic able",
      "Ġcott on",
      "MIS CELLANEOUS",
      "ila ble",
      "ĠCO M",
      "Ġsubscrib e",
      "Ġannu ally",
      "Ġmigr ated",
      "ĠLangu age",
      "ĠConstitu ent",
      "ĠAP P",
      "Ġreconsid er",
      "ĠEstablish ment",
      "ĠAdvocateson Record",
      "Ġil legal",
      "Ġava ilable",
      "Ġbrough t",
      "alid ation",
      "Ġpred ecessor",
      "ĠCro wn",
      "ĠCach ar",
      "Ġmul ti",
      "Ġthreat ened",
      "Ġascertain ed",
      "Ġprope lled",
      "Ġproduct s",
      "Ġextern al",
      "ĠGOV ERN",
      "ĠJun e",
      "Ġdisad vantage",
      "Ġperfor med",
      "Ġpreva il",
      "Ġalread y",
      "Ġnonaccept ance",
      "3 1",
      "7 4",
      "8 1",
      "A n",
      "D ES",
      "E D",
      "O C",
      "P ART",
      "R ITOR",
      "T HE",
      "a tic",
      "a per",
      "e ous",
      "g ing",
      "h at",
      "i y",
      "i ary",
      "l ibari",
      "r ary",
      "s land",
      "s ory",
      "t rib",
      "u ly",
      "u ild",
      "v ers",
      "w ari",
      "w ards",
      "x imum",
      "Ġ Z",
      "Ġ z",
      "Ġt rust",
      "Ġo ught",
      "ti o",
      "in ary",
      "en e",
      "en ant",
      "Ġs ing",
      "Ġs ch",
      "Ġb oundaries",
      "Ġb ring",
      "Ġb uild",
      "at ters",
      "al guri",
      "or ation",
      "ĠS ave",
      "Ġin de",
      "Ġin land",
      "Ġc ultu",
      "ĠC ivil",
      "ĠC riminal",
      "it ary",
      "Ġf ield",
      "Ġm ed",
      "ĠP R",
      "ĠP an",
      "ĠP och",
      "la ves",
      "Ġor gan",
      "Ġre se",
      "Ġe val",
      "Ġe mp",
      "Ġe quality",
      "ĠT er",
      "ĠT ER",
      "Ġfor mation",
      "Ġma ps",
      "Ġma ximum",
      "ĠI sland",
      "Ġas semb",
      "Ġ19 1",
      "Ġ3 56",
      "end ered",
      "Ġpro duced",
      "ĠL ie",
      "ia ble",
      "ol og",
      "ĠM arch",
      "ĠM atters",
      "du lt",
      "Ġres iding",
      "Ġwith hold",
      "ĠF IRST",
      "ec onomic",
      "ĠB o",
      "ĠB ANG",
      "vern ment",
      "nc laves",
      "Ġar med",
      "Ġar bit",
      "Ġcon d",
      "Ġcon tro",
      "am p",
      "ĠPro motion",
      "Ġ20 5",
      "Ġ5 11",
      "Ġde al",
      "Ġde pri",
      "ĠE nclaves",
      "ul bari",
      "ul sory",
      "Ġit self",
      "ut enant",
      "ĠJ uly",
      "ill ary",
      "ta il",
      "igh t",
      "Ġ11 2016",
      "Ġcomm unic",
      "Ġhe aring",
      "Ġca d",
      "Ġad mission",
      "Ġpur por",
      "Ġ196 5",
      "Ġdis eas",
      "Ġ7 0",
      "Ġ7 7",
      "Ġim munities",
      "ĠV alidation",
      "ject s",
      "Ġse lf",
      "Ġr ank",
      "Ġ24 1",
      "Ġ13 0",
      "Ġ13 1985",
      "Ġrec onstitution",
      "par t",
      "Ġ16 6",
      "Ġ16 12",
      "ĠK al",
      "Ġdec isions",
      "Ġ9 0",
      "Ġ9 1",
      "Ġ9 3",
      "Ġ15 1",
      "Ġpart ly",
      "Ġtak ing",
      "Ġ10 0",
      "Ġ10 1",
      "Ġ10 6",
      "Ġ10 7",
      "Ġal co",
      "tif ication",
      "Ġ21 4",
      "Ġ23 5",
      "Ġst anding",
      "Ġrequ iring",
      "ĠEx tent",
      "Ġgo od",
      "Ġcomp ly",
      "Ġ22 1",
      "Ġ22 4",
      "Ġcontin ued",
      "Ġab ol",
      "Ġ36 1",
      "Ġact ual",
      "Ġvac ate",
      "Ġfinanc ed",
      "Ġ25 7",
      "Ġ25 9",
      "Ġ33 1",
      "Ġ33 8",
      "Ġ199 6",
      "pri et",
      "Ġra ised",
      "Ġra ising",
      "Ġra tio",
      "ĠAn n",
      "Ġwe eks",
      "Ġrepres enting",
      "Ġdef ine",
      "LA NG",
      "LA DES",
      "Ġagree ments",
      "Ġlev iable",
      "Ġpartic ip",
      "Ġrepresent atives",
      "Ġappropri ated",
      "go vernment",
      "Ġregard ing",
      "ĠChh at",
      "Ġrest ri",
      "199 3",
      "Ġpos ition",
      "Ġrel ief",
      "Ġimpo ses",
      "Ġimpo sed",
      "ĠThirty eighth",
      "Ġnew sp",
      "Ġdra wing",
      "Ġwork ers",
      "Ġdes ign",
      "Ġkn owled",
      "Ġintro duction",
      "uch libari",
      "Ġregul ated",
      "ĠSix teenth",
      "ien tific",
      "ĠSTAT E",
      "Ġdiv ided",
      "ĠRul ers",
      "ind ing",
      "Ġexist ence",
      "Ġgovern ment",
      "Ġestim ated",
      "Ġequ itable",
      "Ġremain der",
      "Ġappear s",
      "Ġaud iting",
      "Ġcer tifies",
      "Ġcred ited",
      "ĠMin es",
      "Ġcap acity",
      "Ġinser ted",
      "Ġsc ientific",
      "tific ate",
      "Ġpenal ties",
      "Ġfund s",
      "Ġreti red",
      "ĠOther s",
      "PU BLIC",
      "Ġfail ure",
      "Ġroad s",
      "Ġvolunt arily",
      "Ġbir th",
      "Ġanc illary",
      "ĠDhab alguri",
      "ĠCOURT S",
      "Ġtit le",
      "Ġsanc tion",
      "ĠBE TWE",
      "tingu ish",
      "Ġvoc ational",
      "Ġaccep ted",
      "Ġdischar ging",
      "Ġaccru ing",
      "Ġenv ir",
      "Ġimplement ation",
      "Ġdisappro ving",
      "employ ment",
      "Ġste ps",
      "Ġmil itary",
      "Ġmechan ically",
      "ĠIndust ries",
      "Ġke pt",
      "ĠAPP END",
      "Ġsing le",
      "ĠPoch agar",
      "Ġeval u",
      "Ġemp ow",
      "ĠTER RITOR",
      "ĠIsland s",
      "ĠLie utenant",
      "ĠBANG LADES",
      "Ġcontro lled",
      "Ġpurpor ting",
      "Ġdiseas es",
      "Ġself government",
      "Ġ1612 1988",
      "Ġalco hol",
      "LANG UAGE",
      "Ġknowled ge",
      "ĠBETWE EN",
      "ĠBANGLADES H",
      "1 3",
      "2 7",
      "2 9",
      "5 5",
      "5 9",
      "B LE",
      "B angladesh",
      "C HA",
      "C TS",
      "I B",
      "I P",
      "N C",
      "R S",
      "R e",
      "U D",
      "V II",
      "V IC",
      "a res",
      "d ons",
      "d ing",
      "d anga",
      "e p",
      "e enth",
      "f it",
      "g ments",
      "h ood",
      "h ulbari",
      "l ate",
      "o s",
      "o economic",
      "t tered",
      "u is",
      "u ment",
      "u ary",
      "u med",
      "v iction",
      "Ġ lat",
      "he re",
      "Ġa dult",
      "in ce",
      "in anc",
      "er ries",
      "Ġs ou",
      "Ġs end",
      "Ġb ene",
      "tion al",
      "or ts",
      "Ġp ortion",
      "ent al",
      "ĠS h",
      "ĠS ER",
      "Ġc urrent",
      "ĠA S",
      "ar ial",
      "it ative",
      "Ġf erries",
      "Ġm uch",
      "Ġm erger",
      "Ġw ards",
      "ĠP O",
      "ĠP enal",
      "ĠP hulbari",
      "Ġre duced",
      "Ġby ela",
      "an ge",
      "ing uis",
      "se l",
      "Ġsu ed",
      "Ġsu itable",
      "Ġsh are",
      "ce mber",
      "Ġn um",
      "Ġn av",
      "Ġpro posal",
      "pe ll",
      "ra ge",
      "Ġh ol",
      "Ġh us",
      "ĠL ANG",
      "ĠConstitution al",
      "ith out",
      "ver se",
      "Ġex change",
      "ĠM erger",
      "ther n",
      "Ġlaw ful",
      "ĠĠĠĠĠĠĠĠ Ġ",
      "ĠĠĠĠĠĠĠĠ ĠĠĠĠĠ",
      "ĠF inanc",
      "ig ation",
      "ĠB or",
      "tic s",
      "ag ed",
      "Ġcon tra",
      "Ġcon form",
      "Ġcon tracts",
      "Ġ20 7",
      "Ġ20 9",
      "ĠIndia Bangladesh",
      "Ġpar dons",
      "Ġg ra",
      "ĠE quality",
      "ul tiv",
      "ut ta",
      "ak h",
      "ill s",
      "Ġ11 2004",
      "Ġspec if",
      "Ġad j",
      "ĠRe p",
      "ition ally",
      "Ġl inguis",
      "Ġdis tur",
      "197 6",
      "Ġperson al",
      "ip l",
      "Ġserv ed",
      "Ġr ural",
      "Ġ24 2",
      "Ġauthor isation",
      "Ġwhe ne",
      "ĠDe velopment",
      "ĠDe cember",
      "ĠX III",
      "Ġrec ess",
      "Ġ12 8",
      "Ġag encies",
      "Ġ16 8",
      "Ġcom e",
      "Ġ29 2",
      "Ġdec ided",
      "Ġ9 4",
      "Ġ31 4",
      "Ġ195 8",
      "Ġ14 2",
      "Ġ14 4",
      "Ġ14 6",
      "Ġ14 1986",
      "Ġ15 4",
      "Ġ201 2",
      "hal a",
      "Ġ10 3",
      "Ġ10 4",
      "Ġ10 5",
      "Ġal ter",
      "Ġ21 0",
      "Ġdee ms",
      "ER AL",
      "Ġst ation",
      "Ġst amp",
      "Ġrequ ested",
      "Ġ26 1",
      "Ġ26 7",
      "Ġjud gments",
      "Ġ17 2",
      "Ġ17 3",
      "Ġ17 6",
      "Ġ17 8",
      "ĠEx p",
      "ĠEx change",
      "ĠEx ecutive",
      "Ġ30 4",
      "Ġ30 8",
      "Ġass ess",
      "Ġass oci",
      "Ġ37 2",
      "Ġ22 2",
      "Ġ22 7",
      "Ġtrans lation",
      "Ġadminist er",
      "Ġ27 0",
      "Ġ27 3",
      "Ġ27 4",
      "Ġ27 5",
      "Ġcontin ues",
      "Ġtra ffic",
      "Ġ36 7",
      "Ġne xt",
      "Ġ25 4",
      "Ġ33 0",
      "Ġ33 4",
      "Ġappl ies",
      "Ġ28 3",
      "Ġ28 12",
      "198 3",
      "Ġdirect s",
      "Ġmon uments",
      "ishe ries",
      "Ġcontain s",
      "Ġremo ve",
      "Ġpol ice",
      "ĠAr med",
      "Ġpla ced",
      "Ġfa ct",
      "Ġter ms",
      "Ġwe ll",
      "Ġconstru ction",
      "Ġx vi",
      "ĠAl ien",
      "Ġmin imum",
      "Ġemploy ed",
      "Ġop en",
      "Ġ194 7",
      "Ġ202 3",
      "Ġob jects",
      "Ġprof ess",
      "199 0",
      "199 4",
      "Ġreceiv ing",
      "ĠAR EA",
      "Ġrem ission",
      "Ġcolle ct",
      "Ġbear ers",
      "Ġexcep tional",
      "ENT H",
      "EM ENT",
      "Ġten ure",
      "Ġgeneral ity",
      "Ġlegis lative",
      "Ġlegis late",
      "Ġxx vi",
      "Ġrele ttered",
      "ĠNinety first",
      "ĠHin du",
      "ĠTwenty sixth",
      "ĠRest oration",
      "Ġsoci oeconomic",
      "Ġmess ages",
      "Ġexercis es",
      "Ġinvestig ation",
      "duc ing",
      "ĠFifty fourth",
      "Ġliab ility",
      "ank ing",
      "Ġdiv ision",
      "Ġrestric ting",
      "ĠSur vey",
      "Ġmar kets",
      "lem enting",
      "Ġ................................................................ ........",
      "EC IAL",
      "Ġocc up",
      "Ġindust ries",
      "ĠRE PUBLIC",
      "Ġ112 1963",
      "Ġ137 1",
      "Ġintern al",
      "Ġrevok e",
      "ĠRestric tions",
      "Ġpe tition",
      "ĠĠĠĠĠĠĠĠĠĠĠĠĠĠĠĠĠĠĠĠĠĠĠĠĠĠĠĠĠĠĠĠĠĠĠĠĠĠĠĠĠĠĠĠĠĠĠĠĠĠĠĠĠĠĠĠĠĠĠĠĠĠĠĠĠĠĠĠĠĠĠĠĠĠĠĠĠĠĠĠ ĠĠĠĠĠĠĠĠĠĠĠ",
      "Ġcomple tion",
      "Ġfores ts",
      "ĠBar a",
      "Ġcap ital",
      "Ġreadjust ed",
      "Ġorganisation s",
      "ffic ient",
      "Ġindividual s",
      "Ġanim als",
      "Ġgroup s",
      "Ġpenal ty",
      "Ġhere after",
      "Ġenact ments",
      "Ġcustom s",
      "band ry",
      "band ha",
      "sh in",
      "ĠIm position",
      "Ġadequate ly",
      "Ġguarante e",
      "ĠDire ctor",
      "Ġgen erally",
      "Ġlic ence",
      "Ġdeclar ation",
      "Ġcomplain ts",
      "Ġsitu ation",
      "Ġprorog ation",
      "Ġdifficul ties",
      "Ġest ate",
      "ĠAp pell",
      "Ġincre ase",
      "Ġsecret arial",
      "Ġ264 1975",
      "Ġassist ance",
      "Ġremun eration",
      "Ġdesira ble",
      "Ġoccurr ing",
      "ĠRELA TIONS",
      "Ġrepugn ant",
      "TRA CTS",
      "ĠPol ice",
      "ĠGar ati",
      "ĠBe fore",
      "Ġarres t",
      "Ġ........................................................ ....",
      "PER TY",
      "Ġine ligible",
      "ĠCalc utta",
      "ĠLE GISLATIVE",
      "ĠDa hala",
      "ĠDak shin",
      "Ġconting encies",
      "Ġencla ves",
      "Ġgran ted",
      "Ġdisco very",
      "Ġdemarc ated",
      "Ġmulti State",
      "Ġsch ool",
      "Ġrese arch",
      "ĠTer m",
      "Ġ511 1971",
      "ĠAnn ual",
      "Ġrestri ct",
      "ĠAPPEND IX",
      "Ġevalu ate",
      "Ġalcohol ic",
      "Re lations",
      "ĠSER VIC",
      "Ġbyela w",
      "Ġnum erals",
      "Ġnav igation",
      "Ġhol der",
      "Ġhus bandry",
      "ĠFinanc ial",
      "Ġcontra vention",
      "Ġconform ity",
      "Ġlinguis tic",
      "Ġdistur b",
      "Ġwhene ver",
      "ĠAppell ate",
      "0 1",
      "0 4",
      "8 3",
      "9 6",
      "A ll",
      "C o",
      "I f",
      "I NG",
      "M e",
      "O d",
      "R IB",
      "U ND",
      "V ES",
      "V III",
      "W hen",
      "a ha",
      "c y",
      "c ent",
      "c ess",
      "e ch",
      "e ver",
      "e lf",
      "e el",
      "f an",
      "g ers",
      "i pp",
      "i um",
      "j eel",
      "k a",
      "k har",
      "l en",
      "m at",
      "m all",
      "n i",
      "o ver",
      "o sp",
      "r in",
      "r ange",
      "s hip",
      "t ong",
      "t ency",
      "u ing",
      "u nder",
      "u ity",
      "u me",
      "u lations",
      "v ate",
      "x ic",
      "Ġ ..",
      "Ġ ill",
      "Ġt ram",
      "Ġa way",
      "in arily",
      "er y",
      "er ience",
      "en ior",
      "re g",
      "Ġs he",
      "Ġs ide",
      "Ġs ector",
      "Ġs enior",
      "Ġb est",
      "Ġb ridges",
      "is ala",
      "at uity",
      "al la",
      "al pa",
      "or m",
      "or al",
      "Ġ1 56",
      "Ġc ash",
      "ĠC ust",
      "ar s",
      "ar jeel",
      "Ġf o",
      "Ġf u",
      "Ġm is",
      "Ġm other",
      "Ġm oral",
      "Ġw il",
      "Ġw ild",
      "ct ure",
      "ĠP t",
      "ĠP urb",
      "Ġre de",
      "Ġre ject",
      "Ġre be",
      "ou gh",
      "Ġd ates",
      "le um",
      "se m",
      "ate ver",
      "Ġsu it",
      "Ġsu ff",
      "Ġsu pers",
      "Ġth ough",
      "Ġe qual",
      "ĠT RA",
      "ĠT RIB",
      "Ġfor ward",
      "om ic",
      "om pe",
      "tu ff",
      "Ġn am",
      "Ġn alla",
      "as w",
      "Ġpro hibition",
      "Ġh ist",
      "Ġh osp",
      "ri e",
      "th at",
      "ĠH IGH",
      "ir it",
      "Ġex tinguish",
      "if orm",
      "ot or",
      "ot es",
      "ot amari",
      "ĠĠĠĠĠĠĠĠ ĠĠĠĠĠĠ",
      "ĠF ores",
      "ig uri",
      "Ġwh atever",
      "ĠB a",
      "ĠB ackward",
      "pp lement",
      "19 56",
      "ĠR IGH",
      "ĠD E",
      "ĠD arjeel",
      "ud e",
      "che d",
      "Ġar range",
      "am ind",
      "Ġ20 8",
      "itor s",
      "Ġapp ortion",
      "Ġapp ended",
      "ĠPresident s",
      "ay ment",
      "Ġde tail",
      "ll ion",
      "ess es",
      "ĠE duc",
      "lat ure",
      "Ġv ari",
      "ĠJ an",
      "ĠJ ag",
      "Ġcons c",
      "Ġcons olid",
      "Ġcons ecutive",
      "Ġad jud",
      "Ġad verse",
      "Ġinc ompe",
      "Ġexp erience",
      "ĠRe mo",
      "Ġj oin",
      "Ġj ust",
      "Ġpur se",
      "Ġl ib",
      "Ġl iving",
      "Ġ196 7",
      "Ġdis miss",
      "Ġreg ards",
      "Ġper man",
      "Ġper taining",
      "Ġr ent",
      "Ġr ate",
      "Ġr ender",
      "Ġun able",
      "ie ties",
      "Ġ24 0",
      "Ġ24 5",
      "enc ing",
      "ĠDe part",
      "Ġy et",
      "ens aries",
      "Ġcou n",
      "Ġ111 1973",
      "Ġ16 1",
      "Ġ16 5",
      "ĠK uchlibari",
      "Ġ29 4",
      "Ġdec iding",
      "Ġsubject ed",
      "Ġ31 2",
      "Ġ31 6",
      "Ġ31 8",
      "ĠW at",
      "ĠW ithout",
      "Ġ14 7",
      "Ġ14 9",
      "Ġ15 0",
      "Ġ15 112000",
      "Ġ11119 66",
      "Ġpas sen",
      "Ġqu o",
      "Ġ200 2",
      "Ġal ien",
      "Ġal tered",
      "ang er",
      "min ent",
      "Ġinter im",
      "Ġinter ested",
      "Ġ21 3",
      "Ġ21 5",
      "ĠReg ulations",
      "Ġ18 0",
      "Ġ18 4",
      "Ġ18 5",
      "Ġst ock",
      "ĠPanch agar",
      "Ġrequ isition",
      "Ġ26 5",
      "Ġproceed ing",
      "ĠOr ganisation",
      "Ġbo ards",
      "ĠList s",
      "Ġ17 5",
      "Ġexerc ising",
      "tro leum",
      "Ġtw el",
      "Ġman age",
      "ĠEx tension",
      "vi ation",
      "Ġ30 0",
      "Ġ30 2",
      "Ġass ume",
      "ound s",
      "Ġoper ative",
      "Ġ22 3",
      "Ġ22 5",
      "Ġ22 8",
      "tw o",
      "Ġ34 1",
      "Ġ34 3",
      "Ġ34 4",
      "Ġdetermin ing",
      "ĠPat gar",
      "Ġ27 1",
      "Ġ27 8",
      "Ġco op",
      "Ġ32 6",
      "Ġ32 7",
      "201 1",
      "Ġtra ding",
      "200 1",
      "Ġab out",
      "Ġab ility",
      "Ġgr atuity",
      "Ġvac ated",
      "Ġ25 8",
      "Ġfollow s",
      "Ġallow ed",
      "Ġallow ance",
      "Ġ28 0",
      "Ġ28 4",
      "Ġreas semb",
      "Ġmod ify",
      "Ġchar act",
      "Ġra w",
      "amil y",
      "196 1",
      "pres ent",
      "Ġpri or",
      "Ġpri vy",
      "Ġfa ctor",
      "Ġ35 1",
      "Ġtransfer able",
      "ĠAn other",
      "Ġpr in",
      "ĠCom p",
      "Ġdef ence",
      "Ġdef ection",
      "Ġsupp lies",
      "ital s",
      "Ġconsul ted",
      "Ġconsul ting",
      "Ġk ind",
      "Ġlevel s",
      "Ġrepresent ed",
      "Ġextend ing",
      "Ġassent s",
      "Ġemploy ees",
      "ĠSCHEDULE D",
      "Ġfig ure",
      "Ġprof ession",
      "urr ence",
      "tis tics",
      "Ġord inarily",
      "199 2",
      "Ġinst ance",
      "Ġdisp ensaries",
      "ĠThirty second",
      "Ġconc urrence",
      "ordin ation",
      "Ġrequire ment",
      "ĠSu ch",
      "ĠSu pplement",
      "Ġmain tained",
      "Ġprinc ipal",
      "Ġend ow",
      "Ġart s",
      "ĠCo al",
      "ĠPRO PERTY",
      "ĠEighty ninth",
      "Ġinstru ctions",
      "Ġbas ed",
      "Ġlim itation",
      "Ġreceip ts",
      "just ment",
      "Ġro tation",
      "Ġstand ard",
      "Ġstand ards",
      "ĠFifty second",
      "Ġposs ession",
      "Ġsta tistics",
      "ĠTu fan",
      "Ġproportion al",
      "EC U",
      "Ġindust ry",
      "Ġcommunication s",
      "Ġoblig ation",
      "ĠSeventy third",
      "Ġremain s",
      "Ġlike ly",
      "Ġsp irit",
      "Ġpe troleum",
      "Ġcer tificate",
      "Ġminor ity",
      "ĠRec ords",
      "Ġexclus ion",
      "Ġ119 1956",
      "Ġdoc ument",
      "rig ation",
      "Ġmunicipal ity",
      "Ġclaim s",
      "Ġcount ries",
      "Ġenact ment",
      "Ġcandid ates",
      "Ġreti re",
      "Ġlakh s",
      "Ġinvol ving",
      "Ġinvol ves",
      "Ġ190 8",
      "Ġ192 2004",
      "ĠDire ctive",
      "Ġcont rary",
      "Ġlic ences",
      "Ġlie u",
      "Ġdeclar ing",
      "Ġcomplain t",
      "Ġdifficul ty",
      "Ġspe ed",
      "Ġspe ech",
      "Ġbor n",
      "Ġexam in",
      "Ġliqu or",
      "AR Y",
      "Ġir rigation",
      "ĠSP ECIAL",
      "Ġmen sem",
      "Ġ220 26",
      "ĠTra de",
      "ĠInc orporation",
      "Ġ155 1994",
      "Ġcompan ies",
      "Ġdiscrimin ation",
      "Ġfurnish ing",
      "Ġaerodrom e",
      "Un ion",
      "Ġsan itation",
      "ĠSoc ieties",
      "Ġmagistr ate",
      "ĠDec ision",
      "ĠNal gram",
      "Ġhead ing",
      "Ġstri p",
      "Ġmanufacture d",
      "Ġcompens ation",
      "ĠGOVERN MENT",
      "An y",
      "ĠZ amind",
      "Ġz one",
      "Ġbuild ings",
      "ĠPan isala",
      "Ġassemb led",
      "olog ical",
      "Ġwithhold s",
      "ĠBo ard",
      "Ġcommunic ate",
      "Ġabol ished",
      "Ġdesign ated",
      "Ġenvir onment",
      "Ġlat er",
      "Ġsou thern",
      "Ġbene fit",
      "Ġspecif ic",
      "Ġadj our",
      "ĠAlien ated",
      "Ġschool s",
      "Ġdisturb ance",
      "Co operative",
      "elf th",
      "tong ue",
      "xic ating",
      "alpa iguri",
      "ĠCust ody",
      "Ġmother tongue",
      "ĠPurb a",
      "Ġrebe llion",
      "Ġsuff rage",
      "tuff s",
      "Ġnalla h",
      "Ġhist or",
      "Ġhosp itals",
      "ĠDarjeel ing",
      "Ġdetail s",
      "Ġincompe tency",
      "ĠRemo val",
      "Ġperman ent",
      "Ġpassen gers",
      "ĠPanchagar h",
      "Ġtwel ve",
      "ĠPatgar m",
      "Ġcharact er",
      "ĠSupplement ary",
      "ĠTufan ganj",
      "ĠZamind ari",
      "A Y",
      "A TIVE",
      "A MENT",
      "C A",
      "E O",
      "F TH",
      "G RE",
      "I L",
      "I TIES",
      "K ER",
      "L egis",
      "M END",
      "M AN",
      "N ad",
      "T ER",
      "U N",
      "V ENTH",
      "W ER",
      "a h",
      "a i",
      "a u",
      "a ties",
      "a ction",
      "a ult",
      "b h",
      "b ut",
      "b ility",
      "b eas",
      "c ing",
      "c ession",
      "d ec",
      "d ress",
      "e ty",
      "e lfare",
      "f ter",
      "g g",
      "h tia",
      "i ver",
      "i cted",
      "j uri",
      "k i",
      "k ing",
      "k et",
      "l ing",
      "l lan",
      "n ity",
      "o y",
      "o ve",
      "o ting",
      "o ks",
      "p on",
      "p us",
      "p ension",
      "r il",
      "r ants",
      "u able",
      "v able",
      "w ill",
      "y ot",
      "Ġt ab",
      "Ġt ry",
      "Ġa ut",
      "Ġa ward",
      "on isation",
      "ti or",
      "ti le",
      "ti aries",
      "in ned",
      "in after",
      "in ery",
      "en erally",
      "en tiaries",
      "re cy",
      "Ġs old",
      "Ġs ign",
      "Ġs essions",
      "Ġs erve",
      "Ġs mall",
      "Ġb ro",
      "Ġb ills",
      "Ġb anking",
      "nd am",
      "is es",
      "is ce",
      "at ure",
      "at rig",
      "al mon",
      "or ted",
      "Ġp ec",
      "Ġp anch",
      "Ġp ests",
      "Ġp orts",
      "Ġp ounds",
      "ed s",
      "ed u",
      "ĠS E",
      "ĠS l",
      "ĠS o",
      "ĠS ab",
      "ĠS us",
      "ĠS uc",
      "ĠS essions",
      "ĠS ector",
      "Ġin fer",
      "Ġc eiling",
      "Ġc astes",
      "Ġc ine",
      "ĠC ol",
      "ĠA cc",
      "ĠA GRE",
      "ĠA MEND",
      "ĠA fter",
      "ar a",
      "ar g",
      "ar tic",
      "it ness",
      "Ġf od",
      "Ġf ear",
      "Ġf ound",
      "Ġf isheries",
      "Ġf amily",
      "Ġm er",
      "Ġw ard",
      "Ġw inding",
      "Ġw itness",
      "ct ob",
      "ĠP as",
      "ĠP EO",
      "la red",
      "ro pri",
      "Ġre f",
      "Ġre p",
      "Ġre ported"
    ]
  }
}